#ifndef MODEL_AMBULANCE_SIREN_H
#define MODEL_AMBULANCE_SIREN_H

#include <cstdint>

alignas(8) const unsigned char model_ambulance_siren_tflite[] = {
    0x1c, 0x00, 0x00, 0x00, 0x54, 0x46, 0x4c, 0x33, 0x14, 0x00, 0x20, 0x00, 
    0x1c, 0x00, 0x18, 0x00, 0x14, 0x00, 0x10, 0x00, 0x0c, 0x00, 0x00, 0x00, 
    0x08, 0x00, 0x04, 0x00, 0x14, 0x00, 0x00, 0x00, 0x1c, 0x00, 0x00, 0x00, 
    0x88, 0x00, 0x00, 0x00, 0x10, 0x01, 0x00, 0x00, 0xa0, 0x0a, 0x00, 0x00, 
    0xb0, 0x0a, 0x00, 0x00, 0x68, 0x1f, 0x00, 0x00, 0x03, 0x00, 0x00, 0x00, 
    0x01, 0x00, 0x00, 0x00, 0x04, 0x00, 0x00, 0x00, 0x1a, 0xf2, 0xff, 0xff, 
    0x0c, 0x00, 0x00, 0x00, 0x1c, 0x00, 0x00, 0x00, 0x3c, 0x00, 0x00, 0x00, 
    0x0f, 0x00, 0x00, 0x00, 0x73, 0x65, 0x72, 0x76, 0x69, 0x6e, 0x67, 0x5f, 
    0x64, 0x65, 0x66, 0x61, 0x75, 0x6c, 0x74, 0x00, 0x01, 0x00, 0x00, 0x00, 
    0x04, 0x00, 0x00, 0x00, 0x64, 0xff, 0xff, 0xff, 0x26, 0x00, 0x00, 0x00, 
    0x04, 0x00, 0x00, 0x00, 0x08, 0x00, 0x00, 0x00, 0x6f, 0x75, 0x74, 0x70, 
    0x75, 0x74, 0x5f, 0x30, 0x00, 0x00, 0x00, 0x00, 0x01, 0x00, 0x00, 0x00, 
    0x04, 0x00, 0x00, 0x00, 0xfa, 0xf4, 0xff, 0xff, 0x04, 0x00, 0x00, 0x00, 
    0x0b, 0x00, 0x00, 0x00, 0x69, 0x6e, 0x70, 0x75, 0x74, 0x5f, 0x6c, 0x61, 
    0x79, 0x65, 0x72, 0x00, 0x03, 0x00, 0x00, 0x00, 0x64, 0x00, 0x00, 0x00, 
    0x2c, 0x00, 0x00, 0x00, 0x04, 0x00, 0x00, 0x00, 0xb0, 0xff, 0xff, 0xff, 
    0x2a, 0x00, 0x00, 0x00, 0x04, 0x00, 0x00, 0x00, 0x13, 0x00, 0x00, 0x00, 
    0x43, 0x4f, 0x4e, 0x56, 0x45, 0x52, 0x53, 0x49, 0x4f, 0x4e, 0x5f, 0x4d, 
    0x45, 0x54, 0x41, 0x44, 0x41, 0x54, 0x41, 0x00, 0xd4, 0xff, 0xff, 0xff, 
    0x29, 0x00, 0x00, 0x00, 0x04, 0x00, 0x00, 0x00, 0x19, 0x00, 0x00, 0x00, 
    0x72, 0x65, 0x64, 0x75, 0x63, 0x65, 0x64, 0x5f, 0x70, 0x72, 0x65, 0x63, 
    0x69, 0x73, 0x69, 0x6f, 0x6e, 0x5f, 0x73, 0x75, 0x70, 0x70, 0x6f, 0x72, 
    0x74, 0x00, 0x00, 0x00, 0x08, 0x00, 0x0c, 0x00, 0x08, 0x00, 0x04, 0x00, 
    0x08, 0x00, 0x00, 0x00, 0x28, 0x00, 0x00, 0x00, 0x04, 0x00, 0x00, 0x00, 
    0x13, 0x00, 0x00, 0x00, 0x6d, 0x69, 0x6e, 0x5f, 0x72, 0x75, 0x6e, 0x74, 
    0x69, 0x6d, 0x65, 0x5f, 0x76, 0x65, 0x72, 0x73, 0x69, 0x6f, 0x6e, 0x00, 
    0x2b, 0x00, 0x00, 0x00, 0x8c, 0x09, 0x00, 0x00, 0x84, 0x09, 0x00, 0x00, 
    0x70, 0x09, 0x00, 0x00, 0x5c, 0x09, 0x00, 0x00, 0x4c, 0x07, 0x00, 0x00, 
    0xfc, 0x06, 0x00, 0x00, 0x9c, 0x06, 0x00, 0x00, 0x6c, 0x02, 0x00, 0x00, 
    0x50, 0x02, 0x00, 0x00, 0x34, 0x02, 0x00, 0x00, 0x18, 0x02, 0x00, 0x00, 
    0xfc, 0x01, 0x00, 0x00, 0xe8, 0x01, 0x00, 0x00, 0xd0, 0x01, 0x00, 0x00, 
    0xa0, 0x01, 0x00, 0x00, 0x70, 0x01, 0x00, 0x00, 0x68, 0x01, 0x00, 0x00, 
    0x60, 0x01, 0x00, 0x00, 0x58, 0x01, 0x00, 0x00, 0x50, 0x01, 0x00, 0x00, 
    0x48, 0x01, 0x00, 0x00, 0x40, 0x01, 0x00, 0x00, 0x38, 0x01, 0x00, 0x00, 
    0x30, 0x01, 0x00, 0x00, 0x28, 0x01, 0x00, 0x00, 0x20, 0x01, 0x00, 0x00, 
    0x18, 0x01, 0x00, 0x00, 0x10, 0x01, 0x00, 0x00, 0x08, 0x01, 0x00, 0x00, 
    0x00, 0x01, 0x00, 0x00, 0xf8, 0x00, 0x00, 0x00, 0xf0, 0x00, 0x00, 0x00, 
    0xe8, 0x00, 0x00, 0x00, 0xe0, 0x00, 0x00, 0x00, 0xd8, 0x00, 0x00, 0x00, 
    0xd0, 0x00, 0x00, 0x00, 0xc8, 0x00, 0x00, 0x00, 0xc0, 0x00, 0x00, 0x00, 
    0xb8, 0x00, 0x00, 0x00, 0xb0, 0x00, 0x00, 0x00, 0x90, 0x00, 0x00, 0x00, 
    0x74, 0x00, 0x00, 0x00, 0x04, 0x00, 0x00, 0x00, 0x4e, 0xf6, 0xff, 0xff, 
    0x04, 0x00, 0x00, 0x00, 0x60, 0x00, 0x00, 0x00, 0x0c, 0x00, 0x00, 0x00, 
    0x08, 0x00, 0x0e, 0x00, 0x08, 0x00, 0x04, 0x00, 0x08, 0x00, 0x00, 0x00, 
    0x10, 0x00, 0x00, 0x00, 0x28, 0x00, 0x00, 0x00, 0x00, 0x00, 0x06, 0x00, 
    0x08, 0x00, 0x04, 0x00, 0x06, 0x00, 0x00, 0x00, 0x04, 0x00, 0x00, 0x00, 
    0x01, 0x00, 0x00, 0x00, 0xe9, 0x03, 0x00, 0x00, 0x0c, 0x00, 0x18, 0x00, 
    0x14, 0x00, 0x10, 0x00, 0x0c, 0x00, 0x04, 0x00, 0x0c, 0x00, 0x00, 0x00, 
    0xe5, 0xad, 0xc8, 0xda, 0xc9, 0x3d, 0x18, 0xb8, 0x02, 0x00, 0x00, 0x00, 
    0x02, 0x00, 0x00, 0x00, 0x04, 0x00, 0x00, 0x00, 0x06, 0x00, 0x00, 0x00, 
    0x32, 0x2e, 0x32, 0x30, 0x2e, 0x30, 0x00, 0x00, 0xba, 0xf6, 0xff, 0xff, 
    0x04, 0x00, 0x00, 0x00, 0x0b, 0x00, 0x00, 0x00, 0x66, 0x70, 0x31, 0x36, 
    0x61, 0x63, 0x63, 0x66, 0x70, 0x33, 0x32, 0x00, 0xd2, 0xf6, 0xff, 0xff, 
    0x04, 0x00, 0x00, 0x00, 0x10, 0x00, 0x00, 0x00, 0x31, 0x2e, 0x31, 0x35, 
    0x2e, 0x30, 0x00, 0x00, 0x00, 0x00, 0x00, 0x00, 0x00, 0x00, 0x00, 0x00, 
    0x28, 0xe3, 0xff, 0xff, 0x2c, 0xe3, 0xff, 0xff, 0x30, 0xe3, 0xff, 0xff, 
    0x34, 0xe3, 0xff, 0xff, 0x38, 0xe3, 0xff, 0xff, 0x3c, 0xe3, 0xff, 0xff, 
    0x40, 0xe3, 0xff, 0xff, 0x44, 0xe3, 0xff, 0xff, 0x48, 0xe3, 0xff, 0xff, 
    0x4c, 0xe3, 0xff, 0xff, 0x50, 0xe3, 0xff, 0xff, 0x54, 0xe3, 0xff, 0xff, 
    0x58, 0xe3, 0xff, 0xff, 0x5c, 0xe3, 0xff, 0xff, 0x60, 0xe3, 0xff, 0xff, 
    0x64, 0xe3, 0xff, 0xff, 0x68, 0xe3, 0xff, 0xff, 0x6c, 0xe3, 0xff, 0xff, 
    0x70, 0xe3, 0xff, 0xff, 0x74, 0xe3, 0xff, 0xff, 0x78, 0xe3, 0xff, 0xff, 
    0x7c, 0xe3, 0xff, 0xff, 0x80, 0xe3, 0xff, 0xff, 0x84, 0xe3, 0xff, 0xff, 
    0x4e, 0xf7, 0xff, 0xff, 0x04, 0x00, 0x00, 0x00, 0x20, 0x00, 0x00, 0x00, 
    0x84, 0x30, 0x00, 0x00, 0xe6, 0xa2, 0xf8, 0xa4, 0xf5, 0x22, 0x4b, 0x82, 
    0x22, 0x23, 0xcd, 0x9c, 0x00, 0x00, 0xf2, 0xa2, 0x2d, 0xa3, 0xeb, 0x22, 
    0x05, 0xa4, 0x00, 0x00, 0x22, 0xa3, 0x00, 0xa3, 0x7a, 0xf7, 0xff, 0xff, 
    0x04, 0x00, 0x00, 0x00, 0x20, 0x00, 0x00, 0x00, 0x19, 0x21, 0xee, 0xa2, 
    0x6f, 0x21, 0xe4, 0x25, 0xa3, 0x24, 0x47, 0x22, 0x8e, 0xa5, 0x23, 0xa6, 
    0x9e, 0x9d, 0xd2, 0xa3, 0x4a, 0xa5, 0x9f, 0xa1, 0xff, 0x25, 0x22, 0xa5, 
    0xca, 0xa2, 0xc4, 0xa4, 0xa6, 0xf7, 0xff, 0xff, 0x04, 0x00, 0x00, 0x00, 
    0x06, 0x00, 0x00, 0x00, 0x42, 0x21, 0x75, 0x1d, 0xf8, 0xa2, 0x00, 0x00, 
    0xba, 0xf7, 0xff, 0xff, 0x04, 0x00, 0x00, 0x00, 0x04, 0x00, 0x00, 0x00, 
    0xce, 0xa2, 0x0a, 0x23, 0xca, 0xf7, 0xff, 0xff, 0x04, 0x00, 0x00, 0x00, 
    0x0c, 0x00, 0x00, 0x00, 0xff, 0xff, 0xff, 0xff, 0x14, 0x00, 0x00, 0x00, 
    0x10, 0x00, 0x00, 0x00, 0xe2, 0xf7, 0xff, 0xff, 0x04, 0x00, 0x00, 0x00, 
    0x0c, 0x00, 0x00, 0x00, 0xff, 0xff, 0xff, 0xff, 0x28, 0x00, 0x00, 0x00, 
    0x10, 0x00, 0x00, 0x00, 0xfa, 0xf7, 0xff, 0xff, 0x04, 0x00, 0x00, 0x00, 
    0x0c, 0x00, 0x00, 0x00, 0xff, 0xff, 0xff, 0xff, 0x28, 0x00, 0x00, 0x00, 
    0x03, 0x00, 0x00, 0x00, 0x12, 0xf8, 0xff, 0xff, 0x04, 0x00, 0x00, 0x00, 
    0x0c, 0x00, 0x00, 0x00, 0xff, 0xff, 0xff, 0xff, 0x50, 0x00, 0x00, 0x00, 
    0x03, 0x00, 0x00, 0x00, 0x2a, 0xf8, 0xff, 0xff, 0x04, 0x00, 0x00, 0x00, 
    0x20, 0x04, 0x00, 0x00, 0x67, 0xac, 0xda, 0xb0, 0x42, 0x2c, 0x04, 0x2f, 
    0xd3, 0xa9, 0x91, 0xac, 0x4c, 0x20, 0x24, 0xae, 0xfd, 0xa4, 0x4f, 0x31, 
    0xc4, 0xad, 0x9f, 0x30, 0xc3, 0xa2, 0x46, 0x29, 0xfa, 0xad, 0xc5, 0xa1, 
    0xb9, 0x29, 0x47, 0xb0, 0x3f, 0x32, 0x22, 0xaf, 0x21, 0x2c, 0x45, 0xb0, 
    0x06, 0xb1, 0x0b, 0xab, 0xf7, 0x2c, 0x8d, 0xb0, 0x65, 0xa8, 0xac, 0x30, 
    0x1d, 0xb0, 0xb1, 0xab, 0x91, 0xad, 0x1e, 0x2f, 0x24, 0xa4, 0x0d, 0xac, 
    0xfa, 0xb0, 0xab, 0xab, 0x98, 0xb0, 0xce, 0x1f, 0xa8, 0xac, 0x38, 0x2d, 
    0x5b, 0x2c, 0x13, 0xa8, 0xe9, 0x2c, 0x23, 0xac, 0x4d, 0xa5, 0x63, 0xb1, 
    0x72, 0x30, 0x1e, 0xb0, 0x7c, 0x2d, 0x2a, 0x22, 0xf2, 0x30, 0x8b, 0xae, 
    0x95, 0xa4, 0x15, 0x2f, 0xd1, 0xb0, 0xf9, 0x2d, 0x4b, 0xab, 0x05, 0xaf, 
    0x1a, 0xa6, 0xbe, 0x2e, 0x77, 0xb0, 0xe0, 0xaf, 0xfd, 0x2e, 0x7d, 0xa6, 
    0xf1, 0x1e, 0x80, 0x9e, 0xf7, 0x1e, 0x06, 0xb1, 0xb5, 0xb1, 0x7b, 0x25, 
    0xc2, 0xab, 0x48, 0x2f, 0x5e, 0x2c, 0x62, 0xac, 0x6a, 0xa3, 0x9c, 0xa8, 
    0xe2, 0xa6, 0x61, 0xac, 0x95, 0x25, 0x7a, 0x8d, 0x64, 0xa7, 0x9b, 0xa9, 
    0x7e, 0x2f, 0xab, 0xb1, 0xa4, 0x2a, 0x6f, 0x31, 0x40, 0x30, 0x2e, 0xae, 
    0x27, 0xab, 0x78, 0xb0, 0x8f, 0x2a, 0xce, 0x25, 0x9b, 0x26, 0xeb, 0xa3, 
    0xa7, 0x8b, 0x45, 0xaa, 0x4c, 0xa1, 0xc1, 0xb0, 0x89, 0xa0, 0xda, 0x29, 
    0xb7, 0xa8, 0x74, 0x2e, 0xee, 0xa8, 0xed, 0x2e, 0xdf, 0xad, 0x05, 0xa9, 
    0x48, 0xac, 0x22, 0xb1, 0x68, 0x2e, 0xc4, 0x19, 0x36, 0xae, 0x2f, 0x28, 
    0x28, 0xae, 0x5c, 0xb0, 0x5d, 0xab, 0x46, 0x2d, 0x20, 0x2e, 0xa3, 0x2b, 
    0x50, 0x29, 0x69, 0x2a, 0xa6, 0x28, 0x33, 0x32, 0xd1, 0xa0, 0xd5, 0x30, 
    0xe9, 0x2e, 0xa5, 0x2a, 0x01, 0xad, 0xd9, 0xac, 0x98, 0xb0, 0x5d, 0x31, 
    0x4a, 0xaf, 0x8e, 0xac, 0xb5, 0xb0, 0xba, 0xad, 0x08, 0xa5, 0x6e, 0xa8, 
    0x56, 0x2e, 0x88, 0xa9, 0x85, 0x2b, 0x22, 0x25, 0x62, 0xaf, 0xcc, 0x25, 
    0xa1, 0xb0, 0x4b, 0x2c, 0x32, 0x30, 0x66, 0x2d, 0x4d, 0xaa, 0x77, 0x28, 
    0x01, 0xa9, 0x27, 0xb3, 0xd2, 0xa3, 0x09, 0x32, 0x81, 0xa1, 0x9d, 0xa4, 
    0xb1, 0xa9, 0x1b, 0x2c, 0x43, 0xb0, 0xf8, 0xa1, 0x31, 0xb0, 0xcb, 0xa3, 
    0x6a, 0xb1, 0x05, 0x24, 0x16, 0xb1, 0x13, 0xae, 0xb1, 0x22, 0xed, 0x9d, 
    0x1f, 0x31, 0x43, 0x30, 0x30, 0x30, 0x5d, 0x2e, 0x27, 0x2d, 0x96, 0x2d, 
    0x2d, 0x2c, 0x02, 0xaa, 0x1e, 0xac, 0x09, 0x2a, 0x69, 0x1c, 0x68, 0xa7, 
    0xab, 0xae, 0x09, 0xb1, 0x28, 0xa6, 0xd2, 0xac, 0xa1, 0x98, 0x8b, 0xa5, 
    0x09, 0xaf, 0xa7, 0xaf, 0x95, 0xa6, 0x46, 0xb2, 0x5c, 0xb1, 0xcb, 0xaa, 
    0xb5, 0xb0, 0xf8, 0xa4, 0x71, 0x31, 0x6b, 0xb2, 0xaa, 0xb1, 0xf2, 0x2b, 
    0xa8, 0xb2, 0xe5, 0xad, 0x8c, 0x2e, 0x59, 0xb0, 0x39, 0xb0, 0x01, 0xb2, 
    0x94, 0x2f, 0xe3, 0xb1, 0x09, 0x31, 0xf2, 0x27, 0x1c, 0x2d, 0x8d, 0x31, 
    0xe3, 0x29, 0x6a, 0x24, 0x5e, 0xac, 0x1c, 0x1b, 0x98, 0xae, 0xb4, 0xac, 
    0xea, 0xa9, 0xd3, 0x2d, 0xdd, 0xb0, 0x6e, 0x2e, 0x6e, 0x2e, 0xfe, 0xaf, 
    0x11, 0x2f, 0xcc, 0x2e, 0xf2, 0xac, 0xa0, 0x24, 0xcf, 0x29, 0xbd, 0x30, 
    0x59, 0x2c, 0xa5, 0xae, 0x76, 0x2a, 0x63, 0xaf, 0xdd, 0xa9, 0x31, 0xa4, 
    0x71, 0xae, 0x2c, 0xa9, 0x8e, 0xb0, 0x46, 0x29, 0x1a, 0x9a, 0x00, 0xb1, 
    0xd8, 0x2d, 0x9e, 0xb0, 0x9d, 0xac, 0x7a, 0x30, 0x84, 0x2f, 0x81, 0xa8, 
    0x65, 0x2c, 0x0a, 0xb2, 0x4a, 0x27, 0x2f, 0xa6, 0x97, 0xaa, 0x04, 0x28, 
    0x47, 0x30, 0x36, 0xaf, 0xda, 0xaf, 0x7e, 0x9f, 0x6c, 0x29, 0x20, 0xb1, 
    0xa4, 0x19, 0xff, 0x2c, 0x7d, 0xb1, 0x78, 0xa6, 0x70, 0x2e, 0x5d, 0x19, 
    0x39, 0x30, 0xa7, 0xa9, 0xd2, 0xad, 0xbc, 0xb0, 0x46, 0xaa, 0x0f, 0xb0, 
    0x37, 0x31, 0xcb, 0x2d, 0x75, 0xb4, 0xd7, 0x31, 0x1b, 0xb0, 0xb9, 0xab, 
    0x0d, 0x30, 0x50, 0xa9, 0x55, 0x17, 0xfc, 0x30, 0x3e, 0xa9, 0xd2, 0xb0, 
    0x66, 0x30, 0x2b, 0xa9, 0x82, 0xa6, 0x95, 0xa0, 0x7b, 0x23, 0x9d, 0x2e, 
    0xf2, 0x26, 0x6d, 0x28, 0xcf, 0x29, 0x77, 0x31, 0x46, 0xae, 0x77, 0x2c, 
    0xe2, 0xa1, 0x86, 0x24, 0x18, 0x2a, 0x22, 0x30, 0x80, 0xac, 0xcf, 0xae, 
    0x70, 0xac, 0xba, 0xae, 0xf0, 0xab, 0x89, 0x21, 0x01, 0x25, 0x5b, 0x2e, 
    0x73, 0xb0, 0xd7, 0x2d, 0xbf, 0xb0, 0x0b, 0xaf, 0x16, 0xa6, 0xbb, 0x96, 
    0xb5, 0x27, 0x9b, 0x99, 0x2e, 0x30, 0x3f, 0x28, 0xf1, 0x28, 0xec, 0x27, 
    0x4d, 0x2d, 0xc8, 0xa4, 0x12, 0xb2, 0x6e, 0xae, 0x80, 0x2f, 0xb8, 0x2d, 
    0xdc, 0x29, 0xc8, 0xaf, 0x18, 0x32, 0x47, 0x2f, 0x5a, 0x31, 0x25, 0x30, 
    0x9f, 0x30, 0x00, 0x31, 0x23, 0x30, 0x59, 0xa8, 0x39, 0xb0, 0xc9, 0xac, 
    0x4d, 0x2e, 0x6a, 0xa8, 0x5c, 0xac, 0x83, 0x2b, 0xcf, 0xab, 0xcf, 0xb0, 
    0x15, 0xac, 0xe0, 0x29, 0xcb, 0xad, 0x8a, 0x2e, 0x78, 0x9f, 0x21, 0xa8, 
    0x14, 0xb0, 0x18, 0xae, 0xb1, 0x95, 0x24, 0x2d, 0xb8, 0xaa, 0x5b, 0xa5, 
    0xc8, 0x24, 0x58, 0xad, 0x76, 0x30, 0xcd, 0x9f, 0x3d, 0xab, 0x6f, 0xb0, 
    0x7b, 0xb0, 0x85, 0x2c, 0xb0, 0x2b, 0x87, 0xad, 0x27, 0x8d, 0x94, 0xb0, 
    0xd0, 0xad, 0xb3, 0xaa, 0x88, 0xa5, 0xb1, 0xb0, 0xe6, 0x29, 0xf7, 0x21, 
    0x6b, 0x31, 0xef, 0xae, 0xe7, 0x30, 0x5c, 0x30, 0xb9, 0xb0, 0x36, 0xaa, 
    0xeb, 0x24, 0x2b, 0xab, 0x9f, 0xae, 0x8b, 0x30, 0xdc, 0xb0, 0x3c, 0x28, 
    0x5b, 0x2a, 0x58, 0xb1, 0x51, 0xaa, 0xe5, 0x30, 0x0f, 0xab, 0x35, 0xac, 
    0x4e, 0x32, 0x43, 0xb0, 0xd2, 0x2f, 0xd7, 0x2d, 0xe6, 0x2e, 0xdd, 0x30, 
    0xce, 0xa8, 0x0c, 0xb1, 0x08, 0x31, 0x8c, 0x2b, 0x3f, 0x31, 0xc9, 0xae, 
    0x53, 0x29, 0x7b, 0x30, 0xaa, 0x95, 0xd0, 0xae, 0x02, 0x30, 0x54, 0xa1, 
    0xa2, 0x30, 0x9e, 0x30, 0xc0, 0xad, 0x57, 0x30, 0x12, 0x2e, 0x94, 0xad, 
    0x35, 0x2b, 0xc3, 0x30, 0x0a, 0xae, 0x00, 0x2e, 0xd6, 0x2c, 0xbd, 0xae, 
    0x44, 0x2f, 0xb4, 0x31, 0x68, 0x2e, 0x23, 0x2b, 0x71, 0x2e, 0x73, 0x2a, 
    0xbf, 0x2c, 0xb1, 0xac, 0x2c, 0x30, 0x48, 0x26, 0x43, 0x2d, 0x4d, 0x2e, 
    0x21, 0xb0, 0x91, 0xaa, 0x43, 0xa6, 0x85, 0x30, 0x8f, 0xa8, 0xa4, 0x26, 
    0x1c, 0xa9, 0xa4, 0xae, 0xc8, 0xa8, 0x22, 0x30, 0x9b, 0x2c, 0x79, 0xb1, 
    0xae, 0x2c, 0x5e, 0xac, 0x19, 0xac, 0xa0, 0xae, 0xc3, 0xb0, 0x8d, 0x21, 
    0x06, 0xb1, 0x9a, 0x29, 0xbf, 0xb1, 0xdc, 0x2e, 0xb8, 0x30, 0x7f, 0x24, 
    0xbe, 0xb0, 0x94, 0xaf, 0xda, 0x2f, 0x2a, 0xaf, 0xb1, 0xaf, 0x31, 0xb0, 
    0x57, 0xad, 0xba, 0x2e, 0x99, 0x25, 0x5e, 0x32, 0x33, 0xa9, 0xb7, 0xac, 
    0xc0, 0x2e, 0xd9, 0x30, 0x8a, 0xb2, 0x1c, 0xb0, 0xaf, 0xa4, 0xfe, 0x2c, 
    0x77, 0x30, 0x68, 0x1a, 0xc2, 0x28, 0xf8, 0x2b, 0x7d, 0x2e, 0x8c, 0x29, 
    0xd1, 0xaf, 0xa7, 0xac, 0xd2, 0x2c, 0x6f, 0x2c, 0xb6, 0x2e, 0x60, 0x22, 
    0xd5, 0x30, 0xd5, 0x26, 0x2c, 0xb2, 0x99, 0x2f, 0x64, 0x2c, 0x41, 0xa4, 
    0xc4, 0x2f, 0xbe, 0x1d, 0x82, 0xa2, 0x0a, 0xad, 0xd7, 0x27, 0x13, 0xa8, 
    0x83, 0x30, 0x03, 0xa7, 0x7a, 0x25, 0x75, 0xa8, 0x3e, 0xb0, 0x4c, 0x28, 
    0x51, 0x28, 0x29, 0xa9, 0xcc, 0xad, 0xf0, 0xac, 0xc4, 0x23, 0x2d, 0x2f, 
    0x45, 0x2d, 0xee, 0xa8, 0xe8, 0xa4, 0x1b, 0xac, 0xa9, 0xac, 0xe2, 0xb0, 
    0xf5, 0xa9, 0x8d, 0x30, 0x4c, 0x30, 0xaa, 0xaf, 0xc6, 0x25, 0x1c, 0x2a, 
    0xa2, 0x30, 0x81, 0xaf, 0xf9, 0xad, 0x3e, 0xad, 0xd4, 0x31, 0x9e, 0xb2, 
    0x79, 0xac, 0x7e, 0xaa, 0x56, 0xfc, 0xff, 0xff, 0x04, 0x00, 0x00, 0x00, 
    0x4e, 0x00, 0x00, 0x00, 0xea, 0x2c, 0x38, 0x35, 0xce, 0x35, 0x43, 0x32, 
    0x46, 0x35, 0xe2, 0x2c, 0xe9, 0xb0, 0x88, 0x99, 0x5f, 0xb4, 0x3b, 0xac, 
    0xe1, 0xb4, 0xc1, 0xb1, 0x7d, 0xa9, 0xd2, 0xb0, 0x33, 0xb5, 0xd3, 0xae, 
    0xe3, 0x33, 0x8b, 0xb4, 0x57, 0xab, 0xa7, 0x30, 0x34, 0x34, 0x70, 0xb5, 
    0xb0, 0xb5, 0x3d, 0xa8, 0xcc, 0xb1, 0xf4, 0xb1, 0xbc, 0x32, 0x48, 0xb0, 
    0x15, 0xb1, 0x86, 0x32, 0xe8, 0x29, 0x42, 0xb2, 0x49, 0xad, 0xc1, 0xb2, 
    0x81, 0x30, 0x9f, 0xa2, 0x73, 0xb4, 0xac, 0xb4, 0x37, 0x30, 0x00, 0x00, 
    0xb2, 0xfc, 0xff, 0xff, 0x04, 0x00, 0x00, 0x00, 0x40, 0x00, 0x00, 0x00, 
    0xa8, 0x3b, 0xca, 0xb5, 0x5d, 0x34, 0x92, 0x33, 0x37, 0xb4, 0x76, 0xb6, 
    0xf2, 0xb8, 0x3b, 0xb7, 0x69, 0x38, 0x05, 0x31, 0x9c, 0xb4, 0xe0, 0x2d, 
    0x73, 0x37, 0x70, 0xb6, 0x92, 0x21, 0x60, 0x32, 0xa9, 0xb9, 0x60, 0x35, 
    0xcf, 0xa4, 0xe0, 0x2e, 0x4a, 0x35, 0x74, 0xb6, 0x62, 0x2e, 0x2b, 0x32, 
    0x3c, 0x32, 0x8d, 0x24, 0x40, 0xb7, 0x8d, 0x34, 0x45, 0x28, 0xeb, 0xb6, 
    0x46, 0x08, 0x5c, 0xb0, 0xfe, 0xfc, 0xff, 0xff, 0x04, 0x00, 0x00, 0x00, 
    0x00, 0x02, 0x00, 0x00, 0x1e, 0x96, 0x13, 0x31, 0xdb, 0x30, 0x99, 0x2a, 
    0x12, 0xb4, 0x77, 0xb6, 0xd1, 0xad, 0x81, 0xac, 0x18, 0x34, 0xc4, 0x37, 
    0xa9, 0x36, 0x62, 0xae, 0xe6, 0xa9, 0x13, 0xb2, 0x3d, 0x38, 0xbc, 0xb5, 
    0x42, 0xac, 0x44, 0xb5, 0x21, 0x35, 0x3b, 0xa6, 0x0f, 0xb5, 0x85, 0xb4, 
    0x5e, 0xb3, 0x82, 0xb5, 0x6e, 0x36, 0x15, 0xb3, 0xc1, 0x31, 0x7d, 0xb2, 
    0x0e, 0xae, 0x41, 0x33, 0x65, 0x30, 0xf4, 0x27, 0xcc, 0x30, 0x48, 0x36, 
    0x7a, 0xb6, 0xb7, 0x29, 0x7b, 0x2e, 0x73, 0xb4, 0xcb, 0x34, 0xc3, 0xb1, 
    0xf3, 0x2c, 0x6f, 0x35, 0xad, 0xb5, 0xbb, 0x35, 0xd5, 0x2b, 0xf0, 0x22, 
    0x04, 0x35, 0x7f, 0x28, 0xaa, 0x32, 0x66, 0x36, 0x21, 0x96, 0x91, 0x2a, 
    0x5b, 0xb4, 0x24, 0x2d, 0x57, 0xb0, 0x1d, 0x32, 0x46, 0xac, 0x7d, 0x34, 
    0x0a, 0x2e, 0x29, 0x32, 0x02, 0xb6, 0x52, 0x9b, 0x46, 0x34, 0x24, 0xb1, 
    0xf7, 0x2f, 0x27, 0x34, 0x9a, 0x36, 0xb0, 0x32, 0x92, 0xb0, 0xbd, 0x2f, 
    0xbe, 0x30, 0x20, 0xb0, 0xc3, 0xb2, 0x2e, 0xb0, 0xf5, 0xb4, 0xbb, 0xb1, 
    0x0b, 0x37, 0x05, 0xb4, 0xa9, 0xb2, 0xb7, 0x34, 0x7d, 0x36, 0x8b, 0xaa, 
    0x21, 0xb0, 0xc5, 0xb1, 0x8c, 0xb5, 0x9f, 0x33, 0xb5, 0xb4, 0x45, 0xb6, 
    0x23, 0x32, 0xe3, 0xb4, 0xce, 0xb4, 0xfd, 0xb0, 0x71, 0xaf, 0x60, 0xb2, 
    0x5d, 0x36, 0x81, 0x35, 0x78, 0x2e, 0x1a, 0xb1, 0x99, 0xb1, 0x87, 0x34, 
    0xb4, 0x2d, 0xa3, 0x2d, 0x85, 0xae, 0xb1, 0xb6, 0x15, 0x33, 0x13, 0xb1, 
    0xdc, 0xb0, 0x21, 0xb4, 0x49, 0x35, 0xf7, 0x35, 0x37, 0x2b, 0x74, 0xb5, 
    0xaf, 0xab, 0x33, 0x25, 0x6a, 0x31, 0xaf, 0xb3, 0xf1, 0xb1, 0x09, 0xb0, 
    0x64, 0x31, 0x78, 0x36, 0x2d, 0xb5, 0x48, 0x34, 0x1f, 0x35, 0x48, 0xb6, 
    0x4a, 0xb6, 0x3a, 0xad, 0x6d, 0x32, 0xd8, 0x35, 0xbd, 0xb5, 0x7f, 0xb3, 
    0xae, 0xb0, 0xaf, 0x33, 0x23, 0x30, 0xed, 0xb1, 0x12, 0xb6, 0xf6, 0xb4, 
    0x65, 0x30, 0x62, 0xaf, 0x24, 0xb1, 0xf7, 0x2a, 0x0a, 0xb2, 0xec, 0x36, 
    0x86, 0xb5, 0x53, 0xb4, 0xaf, 0xb3, 0x0e, 0x36, 0x39, 0xaa, 0xdf, 0xb6, 
    0x44, 0xb0, 0x91, 0xa1, 0x75, 0x31, 0x4e, 0x34, 0xf8, 0xa4, 0x2c, 0x2e, 
    0x54, 0xb1, 0x3a, 0x35, 0x92, 0x30, 0x98, 0x35, 0xc3, 0xa5, 0x9f, 0x36, 
    0xda, 0xb6, 0x53, 0xb4, 0x5a, 0x36, 0x0a, 0x30, 0x8f, 0xb2, 0x76, 0xb4, 
    0x76, 0xb4, 0x5b, 0xab, 0xf1, 0xb3, 0xf2, 0x34, 0xdb, 0x34, 0x9f, 0x2b, 
    0x99, 0x36, 0xa9, 0x2f, 0x46, 0x36, 0x90, 0x33, 0xf7, 0x34, 0x03, 0x34, 
    0x4f, 0x2d, 0xff, 0x34, 0xea, 0xb2, 0x48, 0x33, 0x38, 0xb2, 0x5f, 0x35, 
    0x5f, 0xb6, 0x36, 0x36, 0x70, 0xb2, 0x9f, 0xb4, 0x9f, 0xb3, 0xef, 0xb5, 
    0xef, 0x32, 0x81, 0x32, 0x65, 0x32, 0x19, 0xab, 0x7c, 0xb0, 0xaa, 0xb1, 
    0xc0, 0xb5, 0xf2, 0x34, 0x21, 0xb0, 0xdc, 0xb1, 0x51, 0x31, 0x22, 0xb6, 
    0x1c, 0x31, 0x11, 0xb2, 0x4c, 0xad, 0xb8, 0xb6, 0x4f, 0x36, 0x11, 0xac, 
    0x0f, 0x34, 0x27, 0xb1, 0x96, 0xb1, 0x11, 0xb2, 0x98, 0xb4, 0x2e, 0x34, 
    0xad, 0xb5, 0xee, 0xaf, 0x9a, 0x1d, 0xa7, 0x1d, 0x3d, 0x9d, 0xb6, 0x36, 
    0x70, 0xb6, 0x5f, 0x2e, 0x53, 0x32, 0xdc, 0x35, 0x05, 0x35, 0x74, 0xad, 
    0xda, 0x2d, 0x87, 0x35, 0x59, 0x30, 0x9c, 0xb1, 0x21, 0xaa, 0xe7, 0xb0, 
    0xc7, 0x35, 0xe8, 0x22, 0x53, 0x33, 0x8f, 0xa2, 0xb5, 0x36, 0x3f, 0x35, 
    0x42, 0xb1, 0xbc, 0xa9, 0xb6, 0x34, 0x06, 0x36, 0x6c, 0xaf, 0x96, 0x35, 
    0x2a, 0xb5, 0xa5, 0xb5, 0xf3, 0x34, 0xc7, 0x31, 0x0d, 0x36, 0x5b, 0x30, 
    0x44, 0xaf, 0x57, 0x36, 0xd1, 0x31, 0xf3, 0x24, 0x1d, 0x34, 0xbc, 0xb4, 
    0x0a, 0xff, 0xff, 0xff, 0x04, 0x00, 0x00, 0x00, 0x04, 0x00, 0x00, 0x00, 
    0xfd, 0xff, 0xff, 0xff, 0x1a, 0xff, 0xff, 0xff, 0x04, 0x00, 0x00, 0x00, 
    0x04, 0x00, 0x00, 0x00, 0x01, 0x00, 0x00, 0x00, 0x64, 0xeb, 0xff, 0xff, 
    0x68, 0xeb, 0xff, 0xff, 0x0f, 0x00, 0x00, 0x00, 0x4d, 0x4c, 0x49, 0x52, 
    0x20, 0x43, 0x6f, 0x6e, 0x76, 0x65, 0x72, 0x74, 0x65, 0x64, 0x2e, 0x00, 
    0x01, 0x00, 0x00, 0x00, 0x14, 0x00, 0x00, 0x00, 0x00, 0x00, 0x0e, 0x00, 
    0x18, 0x00, 0x14, 0x00, 0x10, 0x00, 0x0c, 0x00, 0x08, 0x00, 0x04, 0x00, 
    0x0e, 0x00, 0x00, 0x00, 0x14, 0x00, 0x00, 0x00, 0x1c, 0x00, 0x00, 0x00, 
    0xcc, 0x04, 0x00, 0x00, 0xd0, 0x04, 0x00, 0x00, 0xd4, 0x04, 0x00, 0x00, 
    0x04, 0x00, 0x00, 0x00, 0x6d, 0x61, 0x69, 0x6e, 0x00, 0x00, 0x00, 0x00, 
    0x18, 0x00, 0x00, 0x00, 0x94, 0x04, 0x00, 0x00, 0x68, 0x04, 0x00, 0x00, 
    0x48, 0x04, 0x00, 0x00, 0x28, 0x04, 0x00, 0x00, 0x08, 0x04, 0x00, 0x00, 
    0xe8, 0x03, 0x00, 0x00, 0xc8, 0x03, 0x00, 0x00, 0xa8, 0x03, 0x00, 0x00, 
    0x74, 0x03, 0x00, 0x00, 0x14, 0x03, 0x00, 0x00, 0xec, 0x02, 0x00, 0x00, 
    0xac, 0x02, 0x00, 0x00, 0x58, 0x02, 0x00, 0x00, 0x30, 0x02, 0x00, 0x00, 
    0xfc, 0x01, 0x00, 0x00, 0xb8, 0x01, 0x00, 0x00, 0x90, 0x01, 0x00, 0x00, 
    0x5c, 0x01, 0x00, 0x00, 0x18, 0x01, 0x00, 0x00, 0xf0, 0x00, 0x00, 0x00, 
    0xbc, 0x00, 0x00, 0x00, 0x78, 0x00, 0x00, 0x00, 0x40, 0x00, 0x00, 0x00, 
    0x04, 0x00, 0x00, 0x00, 0xda, 0xfc, 0xff, 0xff, 0x1c, 0x00, 0x00, 0x00, 
    0x00, 0x00, 0x00, 0x09, 0x1c, 0x00, 0x00, 0x00, 0x20, 0x00, 0x00, 0x00, 
    0x07, 0x00, 0x00, 0x00, 0x00, 0x00, 0x06, 0x00, 0x08, 0x00, 0x04, 0x00, 
    0x06, 0x00, 0x00, 0x00, 0x00, 0x00, 0x80, 0x3f, 0x01, 0x00, 0x00, 0x00, 
    0x26, 0x00, 0x00, 0x00, 0x01, 0x00, 0x00, 0x00, 0x25, 0x00, 0x00, 0x00, 
    0x12, 0xfd, 0xff, 0xff, 0x14, 0x00, 0x00, 0x00, 0x00, 0x00, 0x00, 0x08, 
    0x10, 0x00, 0x00, 0x00, 0x14, 0x00, 0x00, 0x00, 0x06, 0x00, 0x00, 0x00, 
    0x70, 0xec, 0xff, 0xff, 0x01, 0x00, 0x00, 0x00, 0x25, 0x00, 0x00, 0x00, 
    0x03, 0x00, 0x00, 0x00, 0x24, 0x00, 0x00, 0x00, 0x15, 0x00, 0x00, 0x00, 
    0x12, 0x00, 0x00, 0x00, 0x46, 0xfd, 0xff, 0xff, 0x1c, 0x00, 0x00, 0x00, 
    0x00, 0x00, 0x00, 0x08, 0x1c, 0x00, 0x00, 0x00, 0x20, 0x00, 0x00, 0x00, 
    0x06, 0x00, 0x00, 0x00, 0x00, 0x00, 0x06, 0x00, 0x08, 0x00, 0x07, 0x00, 
    0x06, 0x00, 0x00, 0x00, 0x00, 0x00, 0x00, 0x01, 0x01, 0x00, 0x00, 0x00, 
    0x24, 0x00, 0x00, 0x00, 0x03, 0x00, 0x00, 0x00, 0x23, 0x00, 0x00, 0x00, 
    0x16, 0x00, 0x00, 0x00, 0x0f, 0x00, 0x00, 0x00, 0x86, 0xfd, 0xff, 0xff, 
    0x14, 0x00, 0x00, 0x00, 0x00, 0x00, 0x00, 0x1b, 0x10, 0x00, 0x00, 0x00, 
    0x14, 0x00, 0x00, 0x00, 0x05, 0x00, 0x00, 0x00, 0xe4, 0xec, 0xff, 0xff, 
    0x01, 0x00, 0x00, 0x00, 0x23, 0x00, 0x00, 0x00, 0x02, 0x00, 0x00, 0x00, 
    0x22, 0x00, 0x00, 0x00, 0x01, 0x00, 0x00, 0x00, 0x32, 0xfe, 0xff, 0xff, 
    0x0c, 0x00, 0x00, 0x00, 0x10, 0x00, 0x00, 0x00, 0x03, 0x00, 0x00, 0x00, 
    0x01, 0x00, 0x00, 0x00, 0x22, 0x00, 0x00, 0x00, 0x02, 0x00, 0x00, 0x00, 
    0x21, 0x00, 0x00, 0x00, 0x0a, 0x00, 0x00, 0x00, 0xda, 0xfd, 0xff, 0xff, 
    0x14, 0x00, 0x00, 0x00, 0x00, 0x00, 0x00, 0x05, 0x24, 0x00, 0x00, 0x00, 
    0x28, 0x00, 0x00, 0x00, 0x04, 0x00, 0x00, 0x00, 0xd6, 0xfe, 0xff, 0xff, 
    0x01, 0x00, 0x00, 0x00, 0x02, 0x00, 0x00, 0x00, 0x01, 0x00, 0x00, 0x00, 
    0x02, 0x00, 0x00, 0x00, 0x00, 0x00, 0x00, 0x01, 0x01, 0x00, 0x00, 0x00, 
    0x21, 0x00, 0x00, 0x00, 0x01, 0x00, 0x00, 0x00, 0x20, 0x00, 0x00, 0x00, 
    0x1a, 0xfe, 0xff, 0xff, 0x14, 0x00, 0x00, 0x00, 0x00, 0x00, 0x00, 0x34, 
    0x10, 0x00, 0x00, 0x00, 0x14, 0x00, 0x00, 0x00, 0x01, 0x00, 0x00, 0x00, 
    0x78, 0xed, 0xff, 0xff, 0x01, 0x00, 0x00, 0x00, 0x20, 0x00, 0x00, 0x00, 
    0x02, 0x00, 0x00, 0x00, 0x1f, 0x00, 0x00, 0x00, 0x01, 0x00, 0x00, 0x00, 
    0xc6, 0xfe, 0xff, 0xff, 0x0c, 0x00, 0x00, 0x00, 0x10, 0x00, 0x00, 0x00, 
    0x03, 0x00, 0x00, 0x00, 0x01, 0x00, 0x00, 0x00, 0x1f, 0x00, 0x00, 0x00, 
    0x02, 0x00, 0x00, 0x00, 0x1e, 0x00, 0x00, 0x00, 0x09, 0x00, 0x00, 0x00, 
    0x6e, 0xfe, 0xff, 0xff, 0x14, 0x00, 0x00, 0x00, 0x00, 0x00, 0x00, 0x01, 
    0x1c, 0x00, 0x00, 0x00, 0x20, 0x00, 0x00, 0x00, 0x02, 0x00, 0x00, 0x00, 
    0xbc, 0xfe, 0xff, 0xff, 0x00, 0x00, 0x00, 0x01, 0x01, 0x00, 0x00, 0x00, 
    0x01, 0x00, 0x00, 0x00, 0x01, 0x00, 0x00, 0x00, 0x1e, 0x00, 0x00, 0x00, 
    0x03, 0x00, 0x00, 0x00, 0x1d, 0x00, 0x00, 0x00, 0x13, 0x00, 0x00, 0x00, 
    0x10, 0x00, 0x00, 0x00, 0xae, 0xfe, 0xff, 0xff, 0x14, 0x00, 0x00, 0x00, 
    0x00, 0x00, 0x00, 0x34, 0x10, 0x00, 0x00, 0x00, 0x14, 0x00, 0x00, 0x00, 
    0x01, 0x00, 0x00, 0x00, 0x0c, 0xee, 0xff, 0xff, 0x01, 0x00, 0x00, 0x00, 
    0x1d, 0x00, 0x00, 0x00, 0x02, 0x00, 0x00, 0x00, 0x1c, 0x00, 0x00, 0x00, 
    0x02, 0x00, 0x00, 0x00, 0x5a, 0xff, 0xff, 0xff, 0x0c, 0x00, 0x00, 0x00, 
    0x10, 0x00, 0x00, 0x00, 0x03, 0x00, 0x00, 0x00, 0x01, 0x00, 0x00, 0x00, 
    0x1c, 0x00, 0x00, 0x00, 0x02, 0x00, 0x00, 0x00, 0x1b, 0x00, 0x00, 0x00, 
    0x08, 0x00, 0x00, 0x00, 0x02, 0xff, 0xff, 0xff, 0x24, 0x00, 0x00, 0x00, 
    0x00, 0x00, 0x00, 0x05, 0x34, 0x00, 0x00, 0x00, 0x38, 0x00, 0x00, 0x00, 
    0x04, 0x00, 0x00, 0x00, 0x00, 0x00, 0x0e, 0x00, 0x18, 0x00, 0x17, 0x00, 
    0x10, 0x00, 0x0c, 0x00, 0x08, 0x00, 0x04, 0x00, 0x0e, 0x00, 0x00, 0x00, 
    0x01, 0x00, 0x00, 0x00, 0x02, 0x00, 0x00, 0x00, 0x01, 0x00, 0x00, 0x00, 
    0x02, 0x00, 0x00, 0x00, 0x00, 0x00, 0x00, 0x01, 0x01, 0x00, 0x00, 0x00, 
    0x1b, 0x00, 0x00, 0x00, 0x01, 0x00, 0x00, 0x00, 0x1a, 0x00, 0x00, 0x00, 
    0x52, 0xff, 0xff, 0xff, 0x14, 0x00, 0x00, 0x00, 0x00, 0x00, 0x00, 0x34, 
    0x10, 0x00, 0x00, 0x00, 0x14, 0x00, 0x00, 0x00, 0x01, 0x00, 0x00, 0x00, 
    0xb0, 0xee, 0xff, 0xff, 0x01, 0x00, 0x00, 0x00, 0x1a, 0x00, 0x00, 0x00, 
    0x02, 0x00, 0x00, 0x00, 0x19, 0x00, 0x00, 0x00, 0x01, 0x00, 0x00, 0x00, 
    0x00, 0x00, 0x0a, 0x00, 0x10, 0x00, 0x0c, 0x00, 0x08, 0x00, 0x04, 0x00, 
    0x0a, 0x00, 0x00, 0x00, 0x0c, 0x00, 0x00, 0x00, 0x10, 0x00, 0x00, 0x00, 
    0x03, 0x00, 0x00, 0x00, 0x01, 0x00, 0x00, 0x00, 0x19, 0x00, 0x00, 0x00, 
    0x02, 0x00, 0x00, 0x00, 0x18, 0x00, 0x00, 0x00, 0x07, 0x00, 0x00, 0x00, 
    0xb2, 0xff, 0xff, 0xff, 0x20, 0x00, 0x00, 0x00, 0x00, 0x00, 0x00, 0x01, 
    0x28, 0x00, 0x00, 0x00, 0x2c, 0x00, 0x00, 0x00, 0x02, 0x00, 0x00, 0x00, 
    0x0c, 0x00, 0x10, 0x00, 0x00, 0x00, 0x0c, 0x00, 0x08, 0x00, 0x07, 0x00, 
    0x0c, 0x00, 0x00, 0x00, 0x00, 0x00, 0x00, 0x01, 0x01, 0x00, 0x00, 0x00, 
    0x01, 0x00, 0x00, 0x00, 0x01, 0x00, 0x00, 0x00, 0x18, 0x00, 0x00, 0x00, 
    0x03, 0x00, 0x00, 0x00, 0x17, 0x00, 0x00, 0x00, 0x14, 0x00, 0x00, 0x00, 
    0x11, 0x00, 0x00, 0x00, 0x00, 0x00, 0x0e, 0x00, 0x18, 0x00, 0x14, 0x00, 
    0x10, 0x00, 0x0c, 0x00, 0x0b, 0x00, 0x04, 0x00, 0x0e, 0x00, 0x00, 0x00, 
    0x14, 0x00, 0x00, 0x00, 0x00, 0x00, 0x00, 0x34, 0x10, 0x00, 0x00, 0x00, 
    0x14, 0x00, 0x00, 0x00, 0x01, 0x00, 0x00, 0x00, 0x6c, 0xef, 0xff, 0xff, 
    0x01, 0x00, 0x00, 0x00, 0x17, 0x00, 0x00, 0x00, 0x02, 0x00, 0x00, 0x00, 
    0x00, 0x00, 0x00, 0x00, 0x02, 0x00, 0x00, 0x00, 0x3a, 0xff, 0xff, 0xff, 
    0x08, 0x00, 0x00, 0x00, 0x0c, 0x00, 0x00, 0x00, 0x01, 0x00, 0x00, 0x00, 
    0x16, 0x00, 0x00, 0x00, 0x01, 0x00, 0x00, 0x00, 0x03, 0x00, 0x00, 0x00, 
    0x56, 0xff, 0xff, 0xff, 0x08, 0x00, 0x00, 0x00, 0x0c, 0x00, 0x00, 0x00, 
    0x01, 0x00, 0x00, 0x00, 0x15, 0x00, 0x00, 0x00, 0x01, 0x00, 0x00, 0x00, 
    0x04, 0x00, 0x00, 0x00, 0x72, 0xff, 0xff, 0xff, 0x08, 0x00, 0x00, 0x00, 
    0x0c, 0x00, 0x00, 0x00, 0x01, 0x00, 0x00, 0x00, 0x14, 0x00, 0x00, 0x00, 
    0x01, 0x00, 0x00, 0x00, 0x05, 0x00, 0x00, 0x00, 0x8e, 0xff, 0xff, 0xff, 
    0x08, 0x00, 0x00, 0x00, 0x0c, 0x00, 0x00, 0x00, 0x01, 0x00, 0x00, 0x00, 
    0x13, 0x00, 0x00, 0x00, 0x01, 0x00, 0x00, 0x00, 0x06, 0x00, 0x00, 0x00, 
    0xaa, 0xff, 0xff, 0xff, 0x08, 0x00, 0x00, 0x00, 0x0c, 0x00, 0x00, 0x00, 
    0x01, 0x00, 0x00, 0x00, 0x12, 0x00, 0x00, 0x00, 0x01, 0x00, 0x00, 0x00, 
    0x0b, 0x00, 0x00, 0x00, 0xc6, 0xff, 0xff, 0xff, 0x08, 0x00, 0x00, 0x00, 
    0x0c, 0x00, 0x00, 0x00, 0x01, 0x00, 0x00, 0x00, 0x11, 0x00, 0x00, 0x00, 
    0x01, 0x00, 0x00, 0x00, 0x0c, 0x00, 0x00, 0x00, 0xe2, 0xff, 0xff, 0xff, 
    0x08, 0x00, 0x00, 0x00, 0x0c, 0x00, 0x00, 0x00, 0x01, 0x00, 0x00, 0x00, 
    0x10, 0x00, 0x00, 0x00, 0x01, 0x00, 0x00, 0x00, 0x0d, 0x00, 0x00, 0x00, 
    0x00, 0x00, 0x0a, 0x00, 0x0c, 0x00, 0x00, 0x00, 0x08, 0x00, 0x04, 0x00, 
    0x0a, 0x00, 0x00, 0x00, 0x08, 0x00, 0x00, 0x00, 0x0c, 0x00, 0x00, 0x00, 
    0x01, 0x00, 0x00, 0x00, 0x0f, 0x00, 0x00, 0x00, 0x01, 0x00, 0x00, 0x00, 
    0x0e, 0x00, 0x00, 0x00, 0x01, 0x00, 0x00, 0x00, 0x26, 0x00, 0x00, 0x00, 
    0x01, 0x00, 0x00, 0x00, 0x00, 0x00, 0x00, 0x00, 0x27, 0x00, 0x00, 0x00, 
    0x50, 0x0f, 0x00, 0x00, 0xfc, 0x0e, 0x00, 0x00, 0xa8, 0x0e, 0x00, 0x00, 
    0x64, 0x0e, 0x00, 0x00, 0x20, 0x0e, 0x00, 0x00, 0xd4, 0x0d, 0x00, 0x00, 
    0x88, 0x0d, 0x00, 0x00, 0x48, 0x0d, 0x00, 0x00, 0x08, 0x0d, 0x00, 0x00, 
    0xc8, 0x0c, 0x00, 0x00, 0x88, 0x0c, 0x00, 0x00, 0x44, 0x0c, 0x00, 0x00, 
    0x00, 0x0c, 0x00, 0x00, 0xbc, 0x0b, 0x00, 0x00, 0x78, 0x0b, 0x00, 0x00, 
    0x3c, 0x0b, 0x00, 0x00, 0xe8, 0x0a, 0x00, 0x00, 0xac, 0x0a, 0x00, 0x00, 
    0x70, 0x0a, 0x00, 0x00, 0x28, 0x0a, 0x00, 0x00, 0xe0, 0x09, 0x00, 0x00, 
    0xa0, 0x09, 0x00, 0x00, 0x60, 0x09, 0x00, 0x00, 0xe0, 0x08, 0x00, 0x00, 
    0xec, 0x07, 0x00, 0x00, 0x20, 0x07, 0x00, 0x00, 0x9c, 0x06, 0x00, 0x00, 
    0x24, 0x06, 0x00, 0x00, 0xac, 0x05, 0x00, 0x00, 0x2c, 0x05, 0x00, 0x00, 
    0x2c, 0x04, 0x00, 0x00, 0x58, 0x03, 0x00, 0x00, 0xd4, 0x02, 0x00, 0x00, 
    0x58, 0x02, 0x00, 0x00, 0xdc, 0x01, 0x00, 0x00, 0x74, 0x01, 0x00, 0x00, 
    0xe0, 0x00, 0x00, 0x00, 0x60, 0x00, 0x00, 0x00, 0x04, 0x00, 0x00, 0x00, 
    0x62, 0xf1, 0xff, 0xff, 0x00, 0x00, 0x00, 0x01, 0x14, 0x00, 0x00, 0x00, 
    0x1c, 0x00, 0x00, 0x00, 0x1c, 0x00, 0x00, 0x00, 0x27, 0x00, 0x00, 0x00, 
    0x34, 0x00, 0x00, 0x00, 0x02, 0x00, 0x00, 0x00, 0xff, 0xff, 0xff, 0xff, 
    0x02, 0x00, 0x00, 0x00, 0x48, 0xf1, 0xff, 0xff, 0x1b, 0x00, 0x00, 0x00, 
    0x53, 0x74, 0x61, 0x74, 0x65, 0x66, 0x75, 0x6c, 0x50, 0x61, 0x72, 0x74, 
    0x69, 0x74, 0x69, 0x6f, 0x6e, 0x65, 0x64, 0x43, 0x61, 0x6c, 0x6c, 0x5f, 
    0x31, 0x3a, 0x30, 0x00, 0x02, 0x00, 0x00, 0x00, 0x01, 0x00, 0x00, 0x00, 
    0x02, 0x00, 0x00, 0x00, 0xba, 0xf1, 0xff, 0xff, 0x00, 0x00, 0x00, 0x01, 
    0x14, 0x00, 0x00, 0x00, 0x1c, 0x00, 0x00, 0x00, 0x1c, 0x00, 0x00, 0x00, 
    0x26, 0x00, 0x00, 0x00, 0x58, 0x00, 0x00, 0x00, 0x02, 0x00, 0x00, 0x00, 
    0xff, 0xff, 0xff, 0xff, 0x02, 0x00, 0x00, 0x00, 0xa0, 0xf1, 0xff, 0xff, 
    0x3c, 0x00, 0x00, 0x00, 0x66, 0x75, 0x6e, 0x63, 0x74, 0x69, 0x6f, 0x6e, 
    0x61, 0x6c, 0x5f, 0x31, 0x2f, 0x64, 0x65, 0x6e, 0x73, 0x65, 0x5f, 0x31, 
    0x5f, 0x32, 0x2f, 0x4d, 0x61, 0x74, 0x4d, 0x75, 0x6c, 0x3b, 0x66, 0x75, 
    0x6e, 0x63, 0x74, 0x69, 0x6f, 0x6e, 0x61, 0x6c, 0x5f, 0x31, 0x2f, 0x64, 
    0x65, 0x6e, 0x73, 0x65, 0x5f, 0x31, 0x5f, 0x32, 0x2f, 0x42, 0x69, 0x61, 
    0x73, 0x41, 0x64, 0x64, 0x00, 0x00, 0x00, 0x00, 0x02, 0x00, 0x00, 0x00, 
    0x01, 0x00, 0x00, 0x00, 0x02, 0x00, 0x00, 0x00, 0x36, 0xf2, 0xff, 0xff, 
    0x00, 0x00, 0x00, 0x01, 0x14, 0x00, 0x00, 0x00, 0x1c, 0x00, 0x00, 0x00, 
    0x1c, 0x00, 0x00, 0x00, 0x25, 0x00, 0x00, 0x00, 0x6c, 0x00, 0x00, 0x00, 
    0x02, 0x00, 0x00, 0x00, 0xff, 0xff, 0xff, 0xff, 0x10, 0x00, 0x00, 0x00, 
    0x1c, 0xf2, 0xff, 0xff, 0x52, 0x00, 0x00, 0x00, 0x66, 0x75, 0x6e, 0x63, 
    0x74, 0x69, 0x6f, 0x6e, 0x61, 0x6c, 0x5f, 0x31, 0x2f, 0x64, 0x65, 0x6e, 
    0x73, 0x65, 0x5f, 0x31, 0x2f, 0x4d, 0x61, 0x74, 0x4d, 0x75, 0x6c, 0x3b, 
    0x66, 0x75, 0x6e, 0x63, 0x74, 0x69, 0x6f, 0x6e, 0x61, 0x6c, 0x5f, 0x31, 
    0x2f, 0x64, 0x65, 0x6e, 0x73, 0x65, 0x5f, 0x31, 0x2f, 0x52, 0x65, 0x6c, 
    0x75, 0x3b, 0x66, 0x75, 0x6e, 0x63, 0x74, 0x69, 0x6f, 0x6e, 0x61, 0x6c, 
    0x5f, 0x31, 0x2f, 0x64, 0x65, 0x6e, 0x73, 0x65, 0x5f, 0x31, 0x2f, 0x42, 
    0x69, 0x61, 0x73, 0x41, 0x64, 0x64, 0x00, 0x00, 0x02, 0x00, 0x00, 0x00, 
    0x01, 0x00, 0x00, 0x00, 0x10, 0x00, 0x00, 0x00, 0xc6, 0xf2, 0xff, 0xff, 
    0x00, 0x00, 0x00, 0x01, 0x14, 0x00, 0x00, 0x00, 0x1c, 0x00, 0x00, 0x00, 
    0x1c, 0x00, 0x00, 0x00, 0x24, 0x00, 0x00, 0x00, 0x40, 0x00, 0x00, 0x00, 
    0x02, 0x00, 0x00, 0x00, 0xff, 0xff, 0xff, 0xff, 0x10, 0x00, 0x00, 0x00, 
    0xac, 0xf2, 0xff, 0xff, 0x27, 0x00, 0x00, 0x00, 0x66, 0x75, 0x6e, 0x63, 
    0x74, 0x69, 0x6f, 0x6e, 0x61, 0x6c, 0x5f, 0x31, 0x2f, 0x67, 0x6c, 0x6f, 
    0x62, 0x61, 0x6c, 0x5f, 0x6d, 0x61, 0x78, 0x5f, 0x70, 0x6f, 0x6f, 0x6c, 
    0x69, 0x6e, 0x67, 0x31, 0x64, 0x5f, 0x31, 0x2f, 0x4d, 0x61, 0x78, 0x00, 
    0x02, 0x00, 0x00, 0x00, 0x01, 0x00, 0x00, 0x00, 0x10, 0x00, 0x00, 0x00, 
    0x2a, 0xf3, 0xff, 0xff, 0x00, 0x00, 0x00, 0x01, 0x14, 0x00, 0x00, 0x00, 
    0x20, 0x00, 0x00, 0x00, 0x20, 0x00, 0x00, 0x00, 0x23, 0x00, 0x00, 0x00, 
    0x50, 0x00, 0x00, 0x00, 0x03, 0x00, 0x00, 0x00, 0xff, 0xff, 0xff, 0xff, 
    0x14, 0x00, 0x00, 0x00, 0x10, 0x00, 0x00, 0x00, 0x14, 0xf3, 0xff, 0xff, 
    0x30, 0x00, 0x00, 0x00, 0x66, 0x75, 0x6e, 0x63, 0x74, 0x69, 0x6f, 0x6e, 
    0x61, 0x6c, 0x5f, 0x31, 0x2f, 0x6d, 0x61, 0x78, 0x5f, 0x70, 0x6f, 0x6f, 
    0x6c, 0x69, 0x6e, 0x67, 0x31, 0x64, 0x5f, 0x31, 0x5f, 0x32, 0x2f, 0x4d, 
    0x61, 0x78, 0x50, 0x6f, 0x6f, 0x6c, 0x31, 0x64, 0x2f, 0x53, 0x71, 0x75, 
    0x65, 0x65, 0x7a, 0x65, 0x00, 0x00, 0x00, 0x00, 0x03, 0x00, 0x00, 0x00, 
    0x01, 0x00, 0x00, 0x00, 0x14, 0x00, 0x00, 0x00, 0x10, 0x00, 0x00, 0x00, 
    0xa2, 0xf3, 0xff, 0xff, 0x00, 0x00, 0x00, 0x01, 0x14, 0x00, 0x00, 0x00, 
    0x24, 0x00, 0x00, 0x00, 0x24, 0x00, 0x00, 0x00, 0x22, 0x00, 0x00, 0x00, 
    0x4c, 0x00, 0x00, 0x00, 0x04, 0x00, 0x00, 0x00, 0xff, 0xff, 0xff, 0xff, 
    0x01, 0x00, 0x00, 0x00, 0x14, 0x00, 0x00, 0x00, 0x10, 0x00, 0x00, 0x00, 
    0x90, 0xf3, 0xff, 0xff, 0x28, 0x00, 0x00, 0x00, 0x66, 0x75, 0x6e, 0x63, 
    0x74, 0x69, 0x6f, 0x6e, 0x61, 0x6c, 0x5f, 0x31, 0x2f, 0x6d, 0x61, 0x78, 
    0x5f, 0x70, 0x6f, 0x6f, 0x6c, 0x69, 0x6e, 0x67, 0x31, 0x64, 0x5f, 0x31, 
    0x5f, 0x32, 0x2f, 0x4d, 0x61, 0x78, 0x50, 0x6f, 0x6f, 0x6c, 0x31, 0x64, 
    0x00, 0x00, 0x00, 0x00, 0x04, 0x00, 0x00, 0x00, 0x01, 0x00, 0x00, 0x00, 
    0x01, 0x00, 0x00, 0x00, 0x14, 0x00, 0x00, 0x00, 0x10, 0x00, 0x00, 0x00, 
    0x1a, 0xf4, 0xff, 0xff, 0x00, 0x00, 0x00, 0x01, 0x14, 0x00, 0x00, 0x00, 
    0x24, 0x00, 0x00, 0x00, 0x24, 0x00, 0x00, 0x00, 0x21, 0x00, 0x00, 0x00, 
    0x54, 0x00, 0x00, 0x00, 0x04, 0x00, 0x00, 0x00, 0xff, 0xff, 0xff, 0xff, 
    0x01, 0x00, 0x00, 0x00, 0x28, 0x00, 0x00, 0x00, 0x10, 0x00, 0x00, 0x00, 
    0x08, 0xf4, 0xff, 0xff, 0x33, 0x00, 0x00, 0x00, 0x66, 0x75, 0x6e, 0x63, 
    0x74, 0x69, 0x6f, 0x6e, 0x61, 0x6c, 0x5f, 0x31, 0x2f, 0x6d, 0x61, 0x78, 
    0x5f, 0x70, 0x6f, 0x6f, 0x6c, 0x69, 0x6e, 0x67, 0x31, 0x64, 0x5f, 0x31, 
    0x5f, 0x32, 0x2f, 0x4d, 0x61, 0x78, 0x50, 0x6f, 0x6f, 0x6c, 0x31, 0x64, 
    0x2f, 0x45, 0x78, 0x70, 0x61, 0x6e, 0x64, 0x44, 0x69, 0x6d, 0x73, 0x00, 
    0x04, 0x00, 0x00, 0x00, 0x01, 0x00, 0x00, 0x00, 0x01, 0x00, 0x00, 0x00, 
    0x28, 0x00, 0x00, 0x00, 0x10, 0x00, 0x00, 0x00, 0x9a, 0xf4, 0xff, 0xff, 
    0x00, 0x00, 0x00, 0x01, 0x14, 0x00, 0x00, 0x00, 0x20, 0x00, 0x00, 0x00, 
    0x20, 0x00, 0x00, 0x00, 0x20, 0x00, 0x00, 0x00, 0xa8, 0x00, 0x00, 0x00, 
    0x03, 0x00, 0x00, 0x00, 0xff, 0xff, 0xff, 0xff, 0x28, 0x00, 0x00, 0x00, 
    0x10, 0x00, 0x00, 0x00, 0x84, 0xf4, 0xff, 0xff, 0x88, 0x00, 0x00, 0x00, 
    0x66, 0x75, 0x6e, 0x63, 0x74, 0x69, 0x6f, 0x6e, 0x61, 0x6c, 0x5f, 0x31, 
    0x2f, 0x63, 0x6f, 0x6e, 0x76, 0x31, 0x64, 0x5f, 0x31, 0x5f, 0x32, 0x2f, 
    0x52, 0x65, 0x6c, 0x75, 0x3b, 0x66, 0x75, 0x6e, 0x63, 0x74, 0x69, 0x6f, 
    0x6e, 0x61, 0x6c, 0x5f, 0x31, 0x2f, 0x63, 0x6f, 0x6e, 0x76, 0x31, 0x64, 
    0x5f, 0x31, 0x5f, 0x32, 0x2f, 0x42, 0x69, 0x61, 0x73, 0x41, 0x64, 0x64, 
    0x3b, 0x66, 0x75, 0x6e, 0x63, 0x74, 0x69, 0x6f, 0x6e, 0x61, 0x6c, 0x5f, 
    0x31, 0x2f, 0x63, 0x6f, 0x6e, 0x76, 0x31, 0x64, 0x5f, 0x31, 0x5f, 0x32, 
    0x2f, 0x63, 0x6f, 0x6e, 0x76, 0x6f, 0x6c, 0x75, 0x74, 0x69, 0x6f, 0x6e, 
    0x2f, 0x53, 0x71, 0x75, 0x65, 0x65, 0x7a, 0x65, 0x3b, 0x66, 0x75, 0x6e, 
    0x63, 0x74, 0x69, 0x6f, 0x6e, 0x61, 0x6c, 0x5f, 0x31, 0x2f, 0x63, 0x6f, 
    0x6e, 0x76, 0x31, 0x64, 0x5f, 0x31, 0x5f, 0x32, 0x2f, 0x53, 0x71, 0x75, 
    0x65, 0x65, 0x7a, 0x65, 0x00, 0x00, 0x00, 0x00, 0x03, 0x00, 0x00, 0x00, 
    0x01, 0x00, 0x00, 0x00, 0x28, 0x00, 0x00, 0x00, 0x10, 0x00, 0x00, 0x00, 
    0x6a, 0xf5, 0xff, 0xff, 0x00, 0x00, 0x00, 0x01, 0x14, 0x00, 0x00, 0x00, 
    0x24, 0x00, 0x00, 0x00, 0x24, 0x00, 0x00, 0x00, 0x1f, 0x00, 0x00, 0x00, 
    0xd0, 0x00, 0x00, 0x00, 0x04, 0x00, 0x00, 0x00, 0xff, 0xff, 0xff, 0xff, 
    0x01, 0x00, 0x00, 0x00, 0x28, 0x00, 0x00, 0x00, 0x10, 0x00, 0x00, 0x00, 
    0x58, 0xf5, 0xff, 0xff, 0xac, 0x00, 0x00, 0x00, 0x66, 0x75, 0x6e, 0x63, 
    0x74, 0x69, 0x6f, 0x6e, 0x61, 0x6c, 0x5f, 0x31, 0x2f, 0x63, 0x6f, 0x6e, 
    0x76, 0x31, 0x64, 0x5f, 0x31, 0x5f, 0x32, 0x2f, 0x52, 0x65, 0x6c, 0x75, 
    0x3b, 0x66, 0x75, 0x6e, 0x63, 0x74, 0x69, 0x6f, 0x6e, 0x61, 0x6c, 0x5f, 
    0x31, 0x2f, 0x63, 0x6f, 0x6e, 0x76, 0x31, 0x64, 0x5f, 0x31, 0x5f, 0x32, 
    0x2f, 0x42, 0x69, 0x61, 0x73, 0x41, 0x64, 0x64, 0x3b, 0x66, 0x75, 0x6e, 
    0x63, 0x74, 0x69, 0x6f, 0x6e, 0x61, 0x6c, 0x5f, 0x31, 0x2f, 0x63, 0x6f, 
    0x6e, 0x76, 0x31, 0x64, 0x5f, 0x31, 0x5f, 0x32, 0x2f, 0x63, 0x6f, 0x6e, 
    0x76, 0x6f, 0x6c, 0x75, 0x74, 0x69, 0x6f, 0x6e, 0x2f, 0x53, 0x71, 0x75, 
    0x65, 0x65, 0x7a, 0x65, 0x3b, 0x66, 0x75, 0x6e, 0x63, 0x74, 0x69, 0x6f, 
    0x6e, 0x61, 0x6c, 0x5f, 0x31, 0x2f, 0x63, 0x6f, 0x6e, 0x76, 0x31, 0x64, 
    0x5f, 0x31, 0x5f, 0x32, 0x2f, 0x53, 0x71, 0x75, 0x65, 0x65, 0x7a, 0x65, 
    0x3b, 0x66, 0x75, 0x6e, 0x63, 0x74, 0x69, 0x6f, 0x6e, 0x61, 0x6c, 0x5f, 
    0x31, 0x2f, 0x63, 0x6f, 0x6e, 0x76, 0x31, 0x64, 0x5f, 0x31, 0x5f, 0x32, 
    0x2f, 0x63, 0x6f, 0x6e, 0x76, 0x6f, 0x6c, 0x75, 0x74, 0x69, 0x6f, 0x6e, 
    0x00, 0x00, 0x00, 0x00, 0x04, 0x00, 0x00, 0x00, 0x01, 0x00, 0x00, 0x00, 
    0x01, 0x00, 0x00, 0x00, 0x28, 0x00, 0x00, 0x00, 0x10, 0x00, 0x00, 0x00, 
    0x66, 0xf6, 0xff, 0xff, 0x00, 0x00, 0x00, 0x01, 0x14, 0x00, 0x00, 0x00, 
    0x24, 0x00, 0x00, 0x00, 0x24, 0x00, 0x00, 0x00, 0x1e, 0x00, 0x00, 0x00, 
    0x50, 0x00, 0x00, 0x00, 0x04, 0x00, 0x00, 0x00, 0xff, 0xff, 0xff, 0xff, 
    0x01, 0x00, 0x00, 0x00, 0x28, 0x00, 0x00, 0x00, 0x03, 0x00, 0x00, 0x00, 
    0x54, 0xf6, 0xff, 0xff, 0x2e, 0x00, 0x00, 0x00, 0x66, 0x75, 0x6e, 0x63, 
    0x74, 0x69, 0x6f, 0x6e, 0x61, 0x6c, 0x5f, 0x31, 0x2f, 0x63, 0x6f, 0x6e, 
    0x76, 0x31, 0x64, 0x5f, 0x31, 0x5f, 0x32, 0x2f, 0x63, 0x6f, 0x6e, 0x76, 
    0x6f, 0x6c, 0x75, 0x74, 0x69, 0x6f, 0x6e, 0x2f, 0x45, 0x78, 0x70, 0x61, 
    0x6e, 0x64, 0x44, 0x69, 0x6d, 0x73, 0x00, 0x00, 0x04, 0x00, 0x00, 0x00, 
    0x01, 0x00, 0x00, 0x00, 0x01, 0x00, 0x00, 0x00, 0x28, 0x00, 0x00, 0x00, 
    0x03, 0x00, 0x00, 0x00, 0xe2, 0xf6, 0xff, 0xff, 0x00, 0x00, 0x00, 0x01, 
    0x14, 0x00, 0x00, 0x00, 0x20, 0x00, 0x00, 0x00, 0x20, 0x00, 0x00, 0x00, 
    0x1d, 0x00, 0x00, 0x00, 0x4c, 0x00, 0x00, 0x00, 0x03, 0x00, 0x00, 0x00, 
    0xff, 0xff, 0xff, 0xff, 0x28, 0x00, 0x00, 0x00, 0x03, 0x00, 0x00, 0x00, 
    0xcc, 0xf6, 0xff, 0xff, 0x2e, 0x00, 0x00, 0x00, 0x66, 0x75, 0x6e, 0x63, 
    0x74, 0x69, 0x6f, 0x6e, 0x61, 0x6c, 0x5f, 0x31, 0x2f, 0x6d, 0x61, 0x78, 
    0x5f, 0x70, 0x6f, 0x6f, 0x6c, 0x69, 0x6e, 0x67, 0x31, 0x64, 0x5f, 0x31, 
    0x2f, 0x4d, 0x61, 0x78, 0x50, 0x6f, 0x6f, 0x6c, 0x31, 0x64, 0x2f, 0x53, 
    0x71, 0x75, 0x65, 0x65, 0x7a, 0x65, 0x00, 0x00, 0x03, 0x00, 0x00, 0x00, 
    0x01, 0x00, 0x00, 0x00, 0x28, 0x00, 0x00, 0x00, 0x03, 0x00, 0x00, 0x00, 
    0x56, 0xf7, 0xff, 0xff, 0x00, 0x00, 0x00, 0x01, 0x14, 0x00, 0x00, 0x00, 
    0x24, 0x00, 0x00, 0x00, 0x24, 0x00, 0x00, 0x00, 0x1c, 0x00, 0x00, 0x00, 
    0x48, 0x00, 0x00, 0x00, 0x04, 0x00, 0x00, 0x00, 0xff, 0xff, 0xff, 0xff, 
    0x01, 0x00, 0x00, 0x00, 0x28, 0x00, 0x00, 0x00, 0x03, 0x00, 0x00, 0x00, 
    0x44, 0xf7, 0xff, 0xff, 0x26, 0x00, 0x00, 0x00, 0x66, 0x75, 0x6e, 0x63, 
    0x74, 0x69, 0x6f, 0x6e, 0x61, 0x6c, 0x5f, 0x31, 0x2f, 0x6d, 0x61, 0x78, 
    0x5f, 0x70, 0x6f, 0x6f, 0x6c, 0x69, 0x6e, 0x67, 0x31, 0x64, 0x5f, 0x31, 
    0x2f, 0x4d, 0x61, 0x78, 0x50, 0x6f, 0x6f, 0x6c, 0x31, 0x64, 0x00, 0x00, 
    0x04, 0x00, 0x00, 0x00, 0x01, 0x00, 0x00, 0x00, 0x01, 0x00, 0x00, 0x00, 
    0x28, 0x00, 0x00, 0x00, 0x03, 0x00, 0x00, 0x00, 0xca, 0xf7, 0xff, 0xff, 
    0x00, 0x00, 0x00, 0x01, 0x14, 0x00, 0x00, 0x00, 0x24, 0x00, 0x00, 0x00, 
    0x24, 0x00, 0x00, 0x00, 0x1b, 0x00, 0x00, 0x00, 0x54, 0x00, 0x00, 0x00, 
    0x04, 0x00, 0x00, 0x00, 0xff, 0xff, 0xff, 0xff, 0x01, 0x00, 0x00, 0x00, 
    0x50, 0x00, 0x00, 0x00, 0x03, 0x00, 0x00, 0x00, 0xb8, 0xf7, 0xff, 0xff, 
    0x31, 0x00, 0x00, 0x00, 0x66, 0x75, 0x6e, 0x63, 0x74, 0x69, 0x6f, 0x6e, 
    0x61, 0x6c, 0x5f, 0x31, 0x2f, 0x6d, 0x61, 0x78, 0x5f, 0x70, 0x6f, 0x6f, 
    0x6c, 0x69, 0x6e, 0x67, 0x31, 0x64, 0x5f, 0x31, 0x2f, 0x4d, 0x61, 0x78, 
    0x50, 0x6f, 0x6f, 0x6c, 0x31, 0x64, 0x2f, 0x45, 0x78, 0x70, 0x61, 0x6e, 
    0x64, 0x44, 0x69, 0x6d, 0x73, 0x00, 0x00, 0x00, 0x04, 0x00, 0x00, 0x00, 
    0x01, 0x00, 0x00, 0x00, 0x01, 0x00, 0x00, 0x00, 0x50, 0x00, 0x00, 0x00, 
    0x03, 0x00, 0x00, 0x00, 0x4a, 0xf8, 0xff, 0xff, 0x00, 0x00, 0x00, 0x01, 
    0x14, 0x00, 0x00, 0x00, 0x20, 0x00, 0x00, 0x00, 0x20, 0x00, 0x00, 0x00, 
    0x1a, 0x00, 0x00, 0x00, 0xa0, 0x00, 0x00, 0x00, 0x03, 0x00, 0x00, 0x00, 
    0xff, 0xff, 0xff, 0xff, 0x50, 0x00, 0x00, 0x00, 0x03, 0x00, 0x00, 0x00, 
    0x34, 0xf8, 0xff, 0xff, 0x80, 0x00, 0x00, 0x00, 0x66, 0x75, 0x6e, 0x63, 
    0x74, 0x69, 0x6f, 0x6e, 0x61, 0x6c, 0x5f, 0x31, 0x2f, 0x63, 0x6f, 0x6e, 
    0x76, 0x31, 0x64, 0x5f, 0x31, 0x2f, 0x52, 0x65, 0x6c, 0x75, 0x3b, 0x66, 
    0x75, 0x6e, 0x63, 0x74, 0x69, 0x6f, 0x6e, 0x61, 0x6c, 0x5f, 0x31, 0x2f, 
    0x63, 0x6f, 0x6e, 0x76, 0x31, 0x64, 0x5f, 0x31, 0x2f, 0x42, 0x69, 0x61, 
    0x73, 0x41, 0x64, 0x64, 0x3b, 0x66, 0x75, 0x6e, 0x63, 0x74, 0x69, 0x6f, 
    0x6e, 0x61, 0x6c, 0x5f, 0x31, 0x2f, 0x63, 0x6f, 0x6e, 0x76, 0x31, 0x64, 
    0x5f, 0x31, 0x2f, 0x63, 0x6f, 0x6e, 0x76, 0x6f, 0x6c, 0x75, 0x74, 0x69, 
    0x6f, 0x6e, 0x2f, 0x53, 0x71, 0x75, 0x65, 0x65, 0x7a, 0x65, 0x3b, 0x66, 
    0x75, 0x6e, 0x63, 0x74, 0x69, 0x6f, 0x6e, 0x61, 0x6c, 0x5f, 0x31, 0x2f, 
    0x63, 0x6f, 0x6e, 0x76, 0x31, 0x64, 0x5f, 0x31, 0x2f, 0x53, 0x71, 0x75, 
    0x65, 0x65, 0x7a, 0x65, 0x00, 0x00, 0x00, 0x00, 0x03, 0x00, 0x00, 0x00, 
    0x01, 0x00, 0x00, 0x00, 0x50, 0x00, 0x00, 0x00, 0x03, 0x00, 0x00, 0x00, 
    0x12, 0xf9, 0xff, 0xff, 0x00, 0x00, 0x00, 0x01, 0x14, 0x00, 0x00, 0x00, 
    0x24, 0x00, 0x00, 0x00, 0x24, 0x00, 0x00, 0x00, 0x19, 0x00, 0x00, 0x00, 
    0xc4, 0x00, 0x00, 0x00, 0x04, 0x00, 0x00, 0x00, 0xff, 0xff, 0xff, 0xff, 
    0x01, 0x00, 0x00, 0x00, 0x50, 0x00, 0x00, 0x00, 0x03, 0x00, 0x00, 0x00, 
    0x00, 0xf9, 0xff, 0xff, 0xa2, 0x00, 0x00, 0x00, 0x66, 0x75, 0x6e, 0x63, 
    0x74, 0x69, 0x6f, 0x6e, 0x61, 0x6c, 0x5f, 0x31, 0x2f, 0x63, 0x6f, 0x6e, 
    0x76, 0x31, 0x64, 0x5f, 0x31, 0x2f, 0x52, 0x65, 0x6c, 0x75, 0x3b, 0x66, 
    0x75, 0x6e, 0x63, 0x74, 0x69, 0x6f, 0x6e, 0x61, 0x6c, 0x5f, 0x31, 0x2f, 
    0x63, 0x6f, 0x6e, 0x76, 0x31, 0x64, 0x5f, 0x31, 0x2f, 0x42, 0x69, 0x61, 
    0x73, 0x41, 0x64, 0x64, 0x3b, 0x66, 0x75, 0x6e, 0x63, 0x74, 0x69, 0x6f, 
    0x6e, 0x61, 0x6c, 0x5f, 0x31, 0x2f, 0x63, 0x6f, 0x6e, 0x76, 0x31, 0x64, 
    0x5f, 0x31, 0x2f, 0x63, 0x6f, 0x6e, 0x76, 0x6f, 0x6c, 0x75, 0x74, 0x69, 
    0x6f, 0x6e, 0x2f, 0x53, 0x71, 0x75, 0x65, 0x65, 0x7a, 0x65, 0x3b, 0x66, 
    0x75, 0x6e, 0x63, 0x74, 0x69, 0x6f, 0x6e, 0x61, 0x6c, 0x5f, 0x31, 0x2f, 
    0x63, 0x6f, 0x6e, 0x76, 0x31, 0x64, 0x5f, 0x31, 0x2f, 0x53, 0x71, 0x75, 
    0x65, 0x65, 0x7a, 0x65, 0x3b, 0x66, 0x75, 0x6e, 0x63, 0x74, 0x69, 0x6f, 
    0x6e, 0x61, 0x6c, 0x5f, 0x31, 0x2f, 0x63, 0x6f, 0x6e, 0x76, 0x31, 0x64, 
    0x5f, 0x31, 0x2f, 0x63, 0x6f, 0x6e, 0x76, 0x6f, 0x6c, 0x75, 0x74, 0x69, 
    0x6f, 0x6e, 0x00, 0x00, 0x04, 0x00, 0x00, 0x00, 0x01, 0x00, 0x00, 0x00, 
    0x01, 0x00, 0x00, 0x00, 0x50, 0x00, 0x00, 0x00, 0x03, 0x00, 0x00, 0x00, 
    0x02, 0xfa, 0xff, 0xff, 0x00, 0x00, 0x00, 0x01, 0x14, 0x00, 0x00, 0x00, 
    0x24, 0x00, 0x00, 0x00, 0x24, 0x00, 0x00, 0x00, 0x18, 0x00, 0x00, 0x00, 
    0x50, 0x00, 0x00, 0x00, 0x04, 0x00, 0x00, 0x00, 0xff, 0xff, 0xff, 0xff, 
    0x01, 0x00, 0x00, 0x00, 0x50, 0x00, 0x00, 0x00, 0x01, 0x00, 0x00, 0x00, 
    0xf0, 0xf9, 0xff, 0xff, 0x2c, 0x00, 0x00, 0x00, 0x66, 0x75, 0x6e, 0x63, 
    0x74, 0x69, 0x6f, 0x6e, 0x61, 0x6c, 0x5f, 0x31, 0x2f, 0x63, 0x6f, 0x6e, 
    0x76, 0x31, 0x64, 0x5f, 0x31, 0x2f, 0x63, 0x6f, 0x6e, 0x76, 0x6f, 0x6c, 
    0x75, 0x74, 0x69, 0x6f, 0x6e, 0x2f, 0x45, 0x78, 0x70, 0x61, 0x6e, 0x64, 
    0x44, 0x69, 0x6d, 0x73, 0x00, 0x00, 0x00, 0x00, 0x04, 0x00, 0x00, 0x00, 
    0x01, 0x00, 0x00, 0x00, 0x01, 0x00, 0x00, 0x00, 0x50, 0x00, 0x00, 0x00, 
    0x01, 0x00, 0x00, 0x00, 0x56, 0xfe, 0xff, 0xff, 0x00, 0x00, 0x00, 0x01, 
    0x10, 0x00, 0x00, 0x00, 0x10, 0x00, 0x00, 0x00, 0x17, 0x00, 0x00, 0x00, 
    0x1c, 0x00, 0x00, 0x00, 0x54, 0xfa, 0xff, 0xff, 0x0f, 0x00, 0x00, 0x00, 
    0x74, 0x66, 0x6c, 0x2e, 0x64, 0x65, 0x71, 0x75, 0x61, 0x6e, 0x74, 0x69, 
    0x7a, 0x65, 0x37, 0x00, 0x02, 0x00, 0x00, 0x00, 0x10, 0x00, 0x00, 0x00, 
    0x10, 0x00, 0x00, 0x00, 0x92, 0xfe, 0xff, 0xff, 0x00, 0x00, 0x00, 0x01, 
    0x10, 0x00, 0x00, 0x00, 0x10, 0x00, 0x00, 0x00, 0x16, 0x00, 0x00, 0x00, 
    0x1c, 0x00, 0x00, 0x00, 0x90, 0xfa, 0xff, 0xff, 0x0f, 0x00, 0x00, 0x00, 
    0x74, 0x66, 0x6c, 0x2e, 0x64, 0x65, 0x71, 0x75, 0x61, 0x6e, 0x74, 0x69, 
    0x7a, 0x65, 0x36, 0x00, 0x02, 0x00, 0x00, 0x00, 0x02, 0x00, 0x00, 0x00, 
    0x10, 0x00, 0x00, 0x00, 0xce, 0xfe, 0xff, 0xff, 0x00, 0x00, 0x00, 0x01, 
    0x10, 0x00, 0x00, 0x00, 0x10, 0x00, 0x00, 0x00, 0x15, 0x00, 0x00, 0x00, 
    0x1c, 0x00, 0x00, 0x00, 0xcc, 0xfa, 0xff, 0xff, 0x0f, 0x00, 0x00, 0x00, 
    0x74, 0x66, 0x6c, 0x2e, 0x64, 0x65, 0x71, 0x75, 0x61, 0x6e, 0x74, 0x69, 
    0x7a, 0x65, 0x35, 0x00, 0x04, 0x00, 0x00, 0x00, 0x03, 0x00, 0x00, 0x00, 
    0x01, 0x00, 0x00, 0x00, 0x0d, 0x00, 0x00, 0x00, 0x01, 0x00, 0x00, 0x00, 
    0x12, 0xff, 0xff, 0xff, 0x00, 0x00, 0x00, 0x01, 0x10, 0x00, 0x00, 0x00, 
    0x10, 0x00, 0x00, 0x00, 0x14, 0x00, 0x00, 0x00, 0x1c, 0x00, 0x00, 0x00, 
    0x10, 0xfb, 0xff, 0xff, 0x0f, 0x00, 0x00, 0x00, 0x74, 0x66, 0x6c, 0x2e, 
    0x64, 0x65, 0x71, 0x75, 0x61, 0x6e, 0x74, 0x69, 0x7a, 0x65, 0x34, 0x00, 
    0x04, 0x00, 0x00, 0x00, 0x10, 0x00, 0x00, 0x00, 0x01, 0x00, 0x00, 0x00, 
    0x0b, 0x00, 0x00, 0x00, 0x03, 0x00, 0x00, 0x00, 0x56, 0xff, 0xff, 0xff, 
    0x00, 0x00, 0x00, 0x01, 0x10, 0x00, 0x00, 0x00, 0x10, 0x00, 0x00, 0x00, 
    0x13, 0x00, 0x00, 0x00, 0x1c, 0x00, 0x00, 0x00, 0x54, 0xfb, 0xff, 0xff, 
    0x0f, 0x00, 0x00, 0x00, 0x74, 0x66, 0x6c, 0x2e, 0x64, 0x65, 0x71, 0x75, 
    0x61, 0x6e, 0x74, 0x69, 0x7a, 0x65, 0x33, 0x00, 0x01, 0x00, 0x00, 0x00, 
    0x02, 0x00, 0x00, 0x00, 0x8e, 0xff, 0xff, 0xff, 0x00, 0x00, 0x00, 0x01, 
    0x10, 0x00, 0x00, 0x00, 0x10, 0x00, 0x00, 0x00, 0x12, 0x00, 0x00, 0x00, 
    0x1c, 0x00, 0x00, 0x00, 0x8c, 0xfb, 0xff, 0xff, 0x0f, 0x00, 0x00, 0x00, 
    0x74, 0x66, 0x6c, 0x2e, 0x64, 0x65, 0x71, 0x75, 0x61, 0x6e, 0x74, 0x69, 
    0x7a, 0x65, 0x32, 0x00, 0x01, 0x00, 0x00, 0x00, 0x03, 0x00, 0x00, 0x00, 
    0xc6, 0xff, 0xff, 0xff, 0x00, 0x00, 0x00, 0x01, 0x10, 0x00, 0x00, 0x00, 
    0x10, 0x00, 0x00, 0x00, 0x11, 0x00, 0x00, 0x00, 0x1c, 0x00, 0x00, 0x00, 
    0xc4, 0xfb, 0xff, 0xff, 0x0f, 0x00, 0x00, 0x00, 0x74, 0x66, 0x6c, 0x2e, 
    0x64, 0x65, 0x71, 0x75, 0x61, 0x6e, 0x74, 0x69, 0x7a, 0x65, 0x31, 0x00, 
    0x01, 0x00, 0x00, 0x00, 0x10, 0x00, 0x00, 0x00, 0x00, 0x00, 0x16, 0x00, 
    0x18, 0x00, 0x14, 0x00, 0x00, 0x00, 0x10, 0x00, 0x0c, 0x00, 0x08, 0x00, 
    0x00, 0x00, 0x00, 0x00, 0x00, 0x00, 0x07, 0x00, 0x16, 0x00, 0x00, 0x00, 
    0x00, 0x00, 0x00, 0x01, 0x10, 0x00, 0x00, 0x00, 0x10, 0x00, 0x00, 0x00, 
    0x10, 0x00, 0x00, 0x00, 0x1c, 0x00, 0x00, 0x00, 0x14, 0xfc, 0xff, 0xff, 
    0x0e, 0x00, 0x00, 0x00, 0x74, 0x66, 0x6c, 0x2e, 0x64, 0x65, 0x71, 0x75, 
    0x61, 0x6e, 0x74, 0x69, 0x7a, 0x65, 0x00, 0x00, 0x01, 0x00, 0x00, 0x00, 
    0x10, 0x00, 0x00, 0x00, 0xc6, 0xfc, 0xff, 0xff, 0x00, 0x00, 0x00, 0x01, 
    0x14, 0x00, 0x00, 0x00, 0x14, 0x00, 0x00, 0x00, 0x0f, 0x00, 0x00, 0x00, 
    0x00, 0x00, 0x00, 0x01, 0x20, 0x00, 0x00, 0x00, 0x50, 0xfc, 0xff, 0xff, 
    0x10, 0x00, 0x00, 0x00, 0x61, 0x72, 0x69, 0x74, 0x68, 0x2e, 0x63, 0x6f, 
    0x6e, 0x73, 0x74, 0x61, 0x6e, 0x74, 0x31, 0x33, 0x00, 0x00, 0x00, 0x00, 
    0x01, 0x00, 0x00, 0x00, 0x10, 0x00, 0x00, 0x00, 0x06, 0xfd, 0xff, 0xff, 
    0x00, 0x00, 0x00, 0x01, 0x14, 0x00, 0x00, 0x00, 0x14, 0x00, 0x00, 0x00, 
    0x0e, 0x00, 0x00, 0x00, 0x00, 0x00, 0x00, 0x01, 0x20, 0x00, 0x00, 0x00, 
    0x90, 0xfc, 0xff, 0xff, 0x10, 0x00, 0x00, 0x00, 0x61, 0x72, 0x69, 0x74, 
    0x68, 0x2e, 0x63, 0x6f, 0x6e, 0x73, 0x74, 0x61, 0x6e, 0x74, 0x31, 0x32, 
    0x00, 0x00, 0x00, 0x00, 0x01, 0x00, 0x00, 0x00, 0x10, 0x00, 0x00, 0x00, 
    0x46, 0xfd, 0xff, 0xff, 0x00, 0x00, 0x00, 0x01, 0x14, 0x00, 0x00, 0x00, 
    0x14, 0x00, 0x00, 0x00, 0x0d, 0x00, 0x00, 0x00, 0x00, 0x00, 0x00, 0x01, 
    0x20, 0x00, 0x00, 0x00, 0xd0, 0xfc, 0xff, 0xff, 0x10, 0x00, 0x00, 0x00, 
    0x61, 0x72, 0x69, 0x74, 0x68, 0x2e, 0x63, 0x6f, 0x6e, 0x73, 0x74, 0x61, 
    0x6e, 0x74, 0x31, 0x31, 0x00, 0x00, 0x00, 0x00, 0x01, 0x00, 0x00, 0x00, 
    0x03, 0x00, 0x00, 0x00, 0x86, 0xfd, 0xff, 0xff, 0x00, 0x00, 0x00, 0x01, 
    0x14, 0x00, 0x00, 0x00, 0x14, 0x00, 0x00, 0x00, 0x0c, 0x00, 0x00, 0x00, 
    0x00, 0x00, 0x00, 0x01, 0x20, 0x00, 0x00, 0x00, 0x10, 0xfd, 0xff, 0xff, 
    0x10, 0x00, 0x00, 0x00, 0x61, 0x72, 0x69, 0x74, 0x68, 0x2e, 0x63, 0x6f, 
    0x6e, 0x73, 0x74, 0x61, 0x6e, 0x74, 0x31, 0x30, 0x00, 0x00, 0x00, 0x00, 
    0x01, 0x00, 0x00, 0x00, 0x02, 0x00, 0x00, 0x00, 0xc6, 0xfd, 0xff, 0xff, 
    0x00, 0x00, 0x00, 0x01, 0x14, 0x00, 0x00, 0x00, 0x14, 0x00, 0x00, 0x00, 
    0x0b, 0x00, 0x00, 0x00, 0x00, 0x00, 0x00, 0x02, 0x1c, 0x00, 0x00, 0x00, 
    0x50, 0xfd, 0xff, 0xff, 0x0f, 0x00, 0x00, 0x00, 0x61, 0x72, 0x69, 0x74, 
    0x68, 0x2e, 0x63, 0x6f, 0x6e, 0x73, 0x74, 0x61, 0x6e, 0x74, 0x39, 0x00, 
    0x01, 0x00, 0x00, 0x00, 0x03, 0x00, 0x00, 0x00, 0x02, 0xfe, 0xff, 0xff, 
    0x00, 0x00, 0x00, 0x01, 0x14, 0x00, 0x00, 0x00, 0x14, 0x00, 0x00, 0x00, 
    0x0a, 0x00, 0x00, 0x00, 0x00, 0x00, 0x00, 0x02, 0x1c, 0x00, 0x00, 0x00, 
    0x8c, 0xfd, 0xff, 0xff, 0x0f, 0x00, 0x00, 0x00, 0x61, 0x72, 0x69, 0x74, 
    0x68, 0x2e, 0x63, 0x6f, 0x6e, 0x73, 0x74, 0x61, 0x6e, 0x74, 0x38, 0x00, 
    0x01, 0x00, 0x00, 0x00, 0x03, 0x00, 0x00, 0x00, 0x3e, 0xfe, 0xff, 0xff, 
    0x00, 0x00, 0x00, 0x01, 0x14, 0x00, 0x00, 0x00, 0x14, 0x00, 0x00, 0x00, 
    0x09, 0x00, 0x00, 0x00, 0x00, 0x00, 0x00, 0x02, 0x1c, 0x00, 0x00, 0x00, 
    0xc8, 0xfd, 0xff, 0xff, 0x0f, 0x00, 0x00, 0x00, 0x61, 0x72, 0x69, 0x74, 
    0x68, 0x2e, 0x63, 0x6f, 0x6e, 0x73, 0x74, 0x61, 0x6e, 0x74, 0x37, 0x00, 
    0x01, 0x00, 0x00, 0x00, 0x03, 0x00, 0x00, 0x00, 0x7a, 0xfe, 0xff, 0xff, 
    0x00, 0x00, 0x00, 0x01, 0x14, 0x00, 0x00, 0x00, 0x14, 0x00, 0x00, 0x00, 
    0x08, 0x00, 0x00, 0x00, 0x00, 0x00, 0x00, 0x02, 0x1c, 0x00, 0x00, 0x00, 
    0x04, 0xfe, 0xff, 0xff, 0x0f, 0x00, 0x00, 0x00, 0x61, 0x72, 0x69, 0x74, 
    0x68, 0x2e, 0x63, 0x6f, 0x6e, 0x73, 0x74, 0x61, 0x6e, 0x74, 0x36, 0x00, 
    0x01, 0x00, 0x00, 0x00, 0x03, 0x00, 0x00, 0x00, 0xb6, 0xfe, 0xff, 0xff, 
    0x00, 0x00, 0x00, 0x01, 0x14, 0x00, 0x00, 0x00, 0x14, 0x00, 0x00, 0x00, 
    0x07, 0x00, 0x00, 0x00, 0x00, 0x00, 0x00, 0x01, 0x1c, 0x00, 0x00, 0x00, 
    0x40, 0xfe, 0xff, 0xff, 0x0f, 0x00, 0x00, 0x00, 0x61, 0x72, 0x69, 0x74, 
    0x68, 0x2e, 0x63, 0x6f, 0x6e, 0x73, 0x74, 0x61, 0x6e, 0x74, 0x35, 0x00, 
    0x04, 0x00, 0x00, 0x00, 0x10, 0x00, 0x00, 0x00, 0x01, 0x00, 0x00, 0x00, 
    0x0b, 0x00, 0x00, 0x00, 0x03, 0x00, 0x00, 0x00, 0xfe, 0xfe, 0xff, 0xff, 
    0x00, 0x00, 0x00, 0x01, 0x14, 0x00, 0x00, 0x00, 0x14, 0x00, 0x00, 0x00, 
    0x06, 0x00, 0x00, 0x00, 0x00, 0x00, 0x00, 0x01, 0x1c, 0x00, 0x00, 0x00, 
    0x88, 0xfe, 0xff, 0xff, 0x0f, 0x00, 0x00, 0x00, 0x61, 0x72, 0x69, 0x74, 
    0x68, 0x2e, 0x63, 0x6f, 0x6e, 0x73, 0x74, 0x61, 0x6e, 0x74, 0x34, 0x00, 
    0x04, 0x00, 0x00, 0x00, 0x03, 0x00, 0x00, 0x00, 0x01, 0x00, 0x00, 0x00, 
    0x0d, 0x00, 0x00, 0x00, 0x01, 0x00, 0x00, 0x00, 0x46, 0xff, 0xff, 0xff, 
    0x00, 0x00, 0x00, 0x01, 0x14, 0x00, 0x00, 0x00, 0x14, 0x00, 0x00, 0x00, 
    0x05, 0x00, 0x00, 0x00, 0x00, 0x00, 0x00, 0x01, 0x1c, 0x00, 0x00, 0x00, 
    0xd0, 0xfe, 0xff, 0xff, 0x0f, 0x00, 0x00, 0x00, 0x61, 0x72, 0x69, 0x74, 
    0x68, 0x2e, 0x63, 0x6f, 0x6e, 0x73, 0x74, 0x61, 0x6e, 0x74, 0x33, 0x00, 
    0x02, 0x00, 0x00, 0x00, 0x02, 0x00, 0x00, 0x00, 0x10, 0x00, 0x00, 0x00, 
    0x86, 0xff, 0xff, 0xff, 0x00, 0x00, 0x00, 0x01, 0x14, 0x00, 0x00, 0x00, 
    0x14, 0x00, 0x00, 0x00, 0x04, 0x00, 0x00, 0x00, 0x00, 0x00, 0x00, 0x01, 
    0x1c, 0x00, 0x00, 0x00, 0x10, 0xff, 0xff, 0xff, 0x0f, 0x00, 0x00, 0x00, 
    0x61, 0x72, 0x69, 0x74, 0x68, 0x2e, 0x63, 0x6f, 0x6e, 0x73, 0x74, 0x61, 
    0x6e, 0x74, 0x32, 0x00, 0x02, 0x00, 0x00, 0x00, 0x10, 0x00, 0x00, 0x00, 
    0x10, 0x00, 0x00, 0x00, 0xc6, 0xff, 0xff, 0xff, 0x00, 0x00, 0x00, 0x01, 
    0x14, 0x00, 0x00, 0x00, 0x14, 0x00, 0x00, 0x00, 0x03, 0x00, 0x00, 0x00, 
    0x00, 0x00, 0x00, 0x02, 0x1c, 0x00, 0x00, 0x00, 0x50, 0xff, 0xff, 0xff, 
    0x0f, 0x00, 0x00, 0x00, 0x61, 0x72, 0x69, 0x74, 0x68, 0x2e, 0x63, 0x6f, 
    0x6e, 0x73, 0x74, 0x61, 0x6e, 0x74, 0x31, 0x00, 0x00, 0x00, 0x00, 0x00, 
    0x00, 0x00, 0x16, 0x00, 0x1c, 0x00, 0x18, 0x00, 0x17, 0x00, 0x10, 0x00, 
    0x0c, 0x00, 0x08, 0x00, 0x00, 0x00, 0x00, 0x00, 0x00, 0x00, 0x07, 0x00, 
    0x16, 0x00, 0x00, 0x00, 0x00, 0x00, 0x00, 0x01, 0x14, 0x00, 0x00, 0x00, 
    0x14, 0x00, 0x00, 0x00, 0x02, 0x00, 0x00, 0x00, 0x00, 0x00, 0x00, 0x02, 
    0x1c, 0x00, 0x00, 0x00, 0xa0, 0xff, 0xff, 0xff, 0x0e, 0x00, 0x00, 0x00, 
    0x61, 0x72, 0x69, 0x74, 0x68, 0x2e, 0x63, 0x6f, 0x6e, 0x73, 0x74, 0x61, 
    0x6e, 0x74, 0x00, 0x00, 0x00, 0x00, 0x00, 0x00, 0x00, 0x00, 0x16, 0x00, 
    0x1c, 0x00, 0x18, 0x00, 0x00, 0x00, 0x14, 0x00, 0x10, 0x00, 0x0c, 0x00, 
    0x00, 0x00, 0x00, 0x00, 0x08, 0x00, 0x07, 0x00, 0x16, 0x00, 0x00, 0x00, 
    0x00, 0x00, 0x00, 0x01, 0x14, 0x00, 0x00, 0x00, 0x24, 0x00, 0x00, 0x00, 
    0x24, 0x00, 0x00, 0x00, 0x01, 0x00, 0x00, 0x00, 0x40, 0x00, 0x00, 0x00, 
    0x03, 0x00, 0x00, 0x00, 0xff, 0xff, 0xff, 0xff, 0x50, 0x00, 0x00, 0x00, 
    0x01, 0x00, 0x00, 0x00, 0x04, 0x00, 0x04, 0x00, 0x04, 0x00, 0x00, 0x00, 
    0x1d, 0x00, 0x00, 0x00, 0x73, 0x65, 0x72, 0x76, 0x69, 0x6e, 0x67, 0x5f, 
    0x64, 0x65, 0x66, 0x61, 0x75, 0x6c, 0x74, 0x5f, 0x69, 0x6e, 0x70, 0x75, 
    0x74, 0x5f, 0x6c, 0x61, 0x79, 0x65, 0x72, 0x3a, 0x30, 0x00, 0x00, 0x00, 
    0x03, 0x00, 0x00, 0x00, 0x01, 0x00, 0x00, 0x00, 0x50, 0x00, 0x00, 0x00, 
    0x01, 0x00, 0x00, 0x00, 0x08, 0x00, 0x00, 0x00, 0x8c, 0x00, 0x00, 0x00, 
    0x70, 0x00, 0x00, 0x00, 0x54, 0x00, 0x00, 0x00, 0x44, 0x00, 0x00, 0x00, 
    0x34, 0x00, 0x00, 0x00, 0x24, 0x00, 0x00, 0x00, 0x14, 0x00, 0x00, 0x00, 
    0x04, 0x00, 0x00, 0x00, 0xb8, 0xff, 0xff, 0xff, 0x19, 0x00, 0x00, 0x00, 
    0x00, 0x00, 0x00, 0x19, 0xc4, 0xff, 0xff, 0xff, 0x09, 0x00, 0x00, 0x00, 
    0x00, 0x00, 0x00, 0x09, 0xd0, 0xff, 0xff, 0xff, 0x52, 0x00, 0x00, 0x00, 
    0x00, 0x00, 0x00, 0x52, 0xdc, 0xff, 0xff, 0xff, 0x11, 0x00, 0x00, 0x00, 
    0x00, 0x00, 0x00, 0x11, 0xe8, 0xff, 0xff, 0xff, 0x16, 0x00, 0x00, 0x00, 
    0x00, 0x00, 0x00, 0x16, 0xf4, 0xff, 0xff, 0xff, 0x03, 0x00, 0x00, 0x00, 
    0x00, 0x00, 0x00, 0x03, 0x0c, 0x00, 0x0c, 0x00, 0x0b, 0x00, 0x00, 0x00, 
    0x00, 0x00, 0x04, 0x00, 0x0c, 0x00, 0x00, 0x00, 0x46, 0x00, 0x00, 0x00, 
    0x00, 0x00, 0x00, 0x46, 0x0c, 0x00, 0x10, 0x00, 0x0f, 0x00, 0x00, 0x00, 
    0x08, 0x00, 0x04, 0x00, 0x0c, 0x00, 0x00, 0x00, 0x06, 0x00, 0x00, 0x00, 
    0x03, 0x00, 0x00, 0x00, 0x00, 0x00, 0x00, 0x06
};

const int model_ambulance_siren_tflite_len = 8252;

#endif  // MODEL_AMBULANCE_SIREN_H
